{"ag": 2235, "gi": 4594, "il": 5094, "le": 5659, "en": 3941, "nt": 6718, "t ": 8794, " t": 883, "te": 8957, "ec": 3746, "ch": 2979, "hn": 4816, "no": 6630, "ol": 6965, "lo": 5810, "og": 6927, "ie": 5042, "es": 4125, "s ": 8222, " i": 534, "in": 5148, "nc": 6371, "c.": 2872, ". ": 1325, " (": 37, "(n": 1145, "ny": 6802, "ys": 9955, "se": 8502, "e:": 3696, ": ": 2004, " a": 184, "a)": 2113, ") ": 1157, " o": 685, "op": 7125, "pe": 7394, "er": 4029, "ra": 7699, "at": 2586, "n ": 6198, " l": 586, "li": 5722, "if": 5062, "fe": 4313, "e ": 3519, " s": 813, "sc": 8484, "ci": 3013, "ce": 2931, " d": 350, "di": 3388, "ia": 4904, "gn": 4624, "os": 7223, "st": 8706, "ti": 9063, "ic": 4956, "cs": 3134, "ap": 2456, "pp": 7520, "pl": 7473, "ed": 3780, "d ": 3191, " c": 295, "he": 4762, "em": 3918, "mi": 6074, "ca": 2875, "al": 2295, "l ": 5510, " m": 622, "ma": 5986, "ar": 2490, "rk": 7952, "ke": 5473, "et": 4202, "ts": 9188, "s.": 8430, " g": 480, "gl": 4614, "ob": 6868, "ba": 2711, " p": 720, "pr": 7538, "re": 7786, "rv": 8188, "ve": 9592, "ph": 7441, "ha": 4736, "rm": 7972, "ac": 2146, "eu": 4245, "ut": 9540, " b": 253, "bi": 2748, "io": 5231, "ot": 7248, "gy": 4679, "y ": 9792, "ad": 2188, "de": 3332, "a ": 2048, "go": 4632, "ov": 7291, "rn": 7997, "nm": 6611, "me": 6042, "cl": 3052, "ni": 6568, "la": 5605, "ab": 2131, "bs": 2812, " f": 438, "fo": 4384, "oo": 7111, "od": 6894, "sa": 8457, "af": 2226, "ty": 9263, " e": 386, "nv": 6790, "vi": 9629, "ir": 5280, "ro": 8009, "on": 7027, "ta": 8909, "ng": 6506, "g ": 4435, "or": 7148, "ns": 6657, "si": 8583, "du": 3487, "uc": 9313, "ct": 3147, "lu": 5894, "ud": 9330, "an": 2389, "na": 6341, "ly": 5916, "yt": 9966, "tr": 9160, "ru": 8172, "um": 9405, "as": 2549, "ss": 8683, "sp": 8661, "om": 6998, "rs": 8091, "iq": 5277, "qu": 7606, "ui": 9373, "id": 5011, "ga": 4527, "hr": 4845, "to": 9125, "gr": 4647, "hy": 4862, "c ": 2837, "co": 3071, "py": 7590, "cr": 3120, "so": 8638, "of": 6913, "ft": 4418, "tw": 9256, "wa": 9680, "su": 8763, "bl": 2768, " r": 773, "ea": 3700, "ge": 4547, " k": 579, "ki": 5494, "it": 5342, "mp": 6146, "pa": 7360, "ai": 2256, "up": 9450, "po": 7498, "rt": 8140, "ll": 5777, "n.": 6328, "nn": 6616, "ou": 7269, "un": 9423, "va": 9573, "s:": 8444, "ek": 3885, "k ": 5438, "mu": 6185, "ul": 9392, "lt": 5874, "i-": 4898, "-m": 1285, "mo": 6123, "cq": 3117, "is": 5302, " 2": 97, "20": 1660, "02": 1518, "21": 1689, "1 ": 1556, "nh": 6563, "el": 3887, "s;": 8454, "; ": 2021, "nf": 6498, "fi": 4340, "yl": 9929, "b ": 2675, "r ": 7619, "ef": 3845, "ff": 4332, "cy": 3184, "y;": 9899, "lv": 5911, "eo": 4003, "ev": 4253, "ry": 8198, "nd": 6403, "m ": 5934, "ms": 6166, " n": 660, "mr": 6165, "eq": 4026, "ue": 9345, "au": 2625, "-d": 1259, "dr": 3459, "ri": 7896, "iv": 5388, "da": 3301, "fa": 4297, " h": 507, "dq": 3456, "ua": 9292, "a;": 2126, "nu": 6778, "uf": 9365, "tu": 9237, "ur": 9467, " u": 921, "us": 9500, "do": 3437, "o ": 6810, "gs": 4663, "tt": 9227, "tl": 9114, "ls": 5852, "hi": 4786, "r&": 7689, "&d": 1116, "lg": 5719, "av": 2639, " w": 965, "ld": 5647, "db": 3323, "br": 2800, "y.": 9888, "tn": 9122, "ne": 6440, "bo": 2783, "oc": 6876, "az": 2668, "ze": 9975, "ug": 9368, "th": 9029, "sh": 8566, "cu": 3169, "pf": 7433, "iz": 5405, " j": 568, "jo": 5423, "oh": 6942, "ey": 4290, "pt": 7572, "ee": 3823, "ah": 2255, "rp": 8076, "lm": 5803, "uk": 9390, "r.": 7697, "-y": 1319, "ye": 9918, "fd": 4310, " v": 946, "ig": 5073, "gh": 4586, "ht": 4851, "pi": 7454, "n-": 6322, "-o": 1291, "f ": 4294, "eg": 3852, "fy": 4432, "y2": 9894, "23": 1694, "3 ": 1740, " $": 0, "$6": 1043, "6.": 1909, ".8": 1410, "p ": 7331, " 5": 140, "5%": 1845, "% ": 1051, " y": 985, "yo": 9941, "oy": 7318, "ak": 2288, "kd": 5470, "ow": 7300, "wn": 9723, "n:": 6337, " 4": 130, "42": 1824, "2%": 1645, "$2": 1022, "2.": 1650, "7b": 1947, "(i": 1142, "s)": 8418, ");": 1191, " 3": 119, "31": 1777, "1%": 1566, ".1": 1367, "12": 1601, "2b": 1736, "(r": 1150, "sy": 8788, "sl": 8627, "27": 1731, "7%": 1931, "$1": 1003, "1.": 1569, "4b": 1836, "(s": 1152, "t)": 8882, ").": 1185, "y:": 9897, "am": 2371, "6b": 1922, "b;": 2709, "dd": 3327, "dl": 3429, "fr": 4402, "29": 1735, "9%": 1980, ".9": 1415, "98": 1994, "8b": 1971, "99": 1997, "9b": 2000, "b.": 2706, "rg": 7880, "4.": 1813, "8%": 1956, "%;": 1111, "22": 1691, ".2": 1372, "24": 1710, "h ": 4696, ".5": 1392, "5b": 1896, "eb": 3740, "bt": 2818, " ~": 997, "~$": 9998, "$4": 1034, "ds": 3471, "$0": 1001, "0.": 1484, "90": 1983, "0/": 1492, "/s": 1430, "l;": 5603, "1b": 1632, " 1": 72, "16": 1621, "6%": 1907, "e.": 3685, "gu": 4670, "g:": 4523, "pu": 7581, "ew": 4263, "t-": 8886, "-p": 1295, "ck": 3037, "ka": 5464, "rd": 7775, "19": 1629, "9 ": 1975, "e;": 3698, "ep": 4010, "oa": 6853, "rr": 8083, "ay": 2659, "50": 1872, "0%": 1448, "by": 2834, "03": 1535, "30": 1770, "ws": 9743, " q": 764, "q2": 7601, "2 ": 1636, "4 ": 1792, "be": 2733, "im": 5128, " 8": 168, "wt": 9746, "d.": 3292, "agi": 2245, "gil": 4601, "ile": 5103, "len": 5695, "ent": 3987, "nt ": 6719, "t t": 8873, " te": 887, "tec": 8976, "ech": 3751, "chn": 3008, "hno": 4817, "nol": 6635, "olo": 6986, "log": 5820, "ogi": 6931, "gie": 4599, "ies": 5056, "es ": 4126, "s i": 8330, " in": 545, "inc": 5171, "nc.": 6374, "c. ": 2873, ". (": 1326, " (n": 57, "(ny": 1146, "nys": 6807, "yse": 9957, "se:": 8524, "e: ": 3697, ": a": 2007, "a) ": 2114, ") o": 1172, " op": 704, "ope": 7128, "per": 7417, "era": 4058, "rat": 7742, "ate": 2593, "tes": 9016, "in ": 5149, "n l": 6263, " li": 599, "lif": 5740, "ife": 5063, "fe ": 4314, "e s": 3641, " sc": 822, "sci": 8488, "cie": 3018, "ien": 5050, "enc": 3956, "nce": 6376, "ces": 2971, "s d": 8292, " di": 367, "dia": 3390, "iag": 4926, "agn": 2248, "gno": 4629, "nos": 6646, "ost": 7239, "sti": 8740, "tic": 9071, "ics": 5004, "cs ": 3135, "s a": 8259, " ap": 226, "app": 2475, "ppl": 7528, "pli": 7483, "lie": 5736, "ied": 5044, "ed ": 3781, "d c": 3213, " ch": 312, "che": 2995, "hem": 4775, "emi": 3929, "mic": 6078, "ica": 4976, "cal": 2887, "al ": 2296, "l m": 5558, " ma": 623, "mar": 6010, "ark": 2527, "rke": 7955, "ket": 5484, "ets": 4237, "ts.": 9218, "s. ": 8431, ". g": 1341, " gl": 490, "glo": 4618, "lob": 5815, "oba": 6869, "bal": 2715, "l p": 5568, " pr": 756, "pre": 7540, "res": 7862, "ese": 4171, "sen": 8545, "ce ": 2932, " se": 828, "ser": 8548, "erv": 4118, "rve": 8190, "ves": 9625, "s p": 8361, " ph": 737, "pha": 7442, "har": 4747, "arm": 2531, "rma": 7979, "mac": 5990, "ace": 2155, "ceu": 2976, "eut": 4250, "uti": 9549, "l b": 5524, " bi": 269, "bio": 2758, "iot": 5253, "ote": 7253, "ogy": 6939, "gy ": 4680, "y a": 9802, " ac": 186, "aca": 2149, "cad": 2882, "ade": 2197, "dem": 3354, "mia": 6076, "ia ": 4905, "a g": 2082, " go": 493, "gov": 4644, "ove": 7295, "ver": 9617, "ern": 4092, "rnm": 8007, "nme": 6612, "men": 6056, "t c": 8818, " cl": 319, "cli": 3060, "lin": 5751, "ini": 5208, "nic": 6571, "l l": 5553, " la": 587, "lab": 5607, "abs": 2144, "bs ": 2813, "s f": 8310, " fo": 463, "foo": 4389, "ood": 7112, "od ": 6895, "d s": 3263, " sa": 814, "saf": 8467, "afe": 2227, "fet": 4330, "ety": 4243, "ty ": 9264, "y e": 9826, " en": 408, "env": 4000, "nvi": 6795, "vir": 9646, "iro": 5296, "ron": 8044, "onm": 7087, "nta": 6744, "tal": 8926, "l t": 5583, "est": 4193, "tin": 9091, "ing": 5194, "ng ": 6507, "g f": 4462, "for": 4392, "ore": 7176, "ren": 7852, "ens": 3982, "nsi": 6697, "sic": 8589, "cs.": 3145, ". p": 1350, "pro": 7553, "rod": 8021, "odu": 6904, "duc": 3490, "uct": 9324, "cts": 3163, "ts ": 9189, "ncl": 6393, "clu": 3066, "lud": 5895, "ude": 9339, "de ": 3333, "e a": 3547, " an": 221, "ana": 2402, "nal": 6353, "aly": 2368, "lyt": 5932, "yti": 9967, "l i": 5551, "ins": 5220, "nst": 6708, "str": 8752, "tru": 9182, "rum": 8181, "ume": 9414, "nts": 6772, "s m": 8343, "mas": 6016, "ass": 2574, "ss ": 8684, "s s": 8380, " sp": 858, "spe": 8664, "pec": 7403, "ect": 3767, "ctr": 3160, "tro": 9178, "rom": 8042, "ome": 7006, "met": 6068, "ete": 4221, "ter": 9003, "ers": 4103, "rs ": 8092, "s l": 8338, "liq": 5760, "iqu": 5278, "qui": 7612, "uid": 9374, "id ": 5012, "d g": 3231, " ga": 481, "gas": 4541, "as ": 2550, "s c": 8282, "chr": 3011, "hro": 4847, "oma": 7001, "mat": 6019, "ato": 2616, "ogr": 6937, "gra": 4648, "rap": 7733, "aph": 2466, "phy": 7450, "hy ": 4863, " at": 240, "tom": 9133, "omi": 7010, "ic ": 4957, "c s": 2864, "ros": 8055, "osc": 7227, "sco": 8492, "cop": 3102, "py ": 7591, "y m": 9845, " mi": 641, "icr": 5002, "cro": 3128, "y s": 9865, " so": 853, "sof": 8642, "oft": 6924, "ftw": 4422, "twa": 9257, "war": 9686, "are": 2512, "re ": 7787, "e c": 3566, " co": 326, "con": 3092, "ons": 7094, "nsu": 6712, "sum": 8772, "uma": 9410, "mab": 5988, "abl": 2138, "ble": 2771, "les": 5702, "s r": 8374, " re": 782, "rea": 7809, "eag": 3708, "age": 2236, "gen": 4566, "s k": 8336, " ki": 583, "kit": 5497, "its": 5375, ". s": 1356, "rvi": 8193, "vic": 9633, "ice": 4984, "s e": 8299, "nco": 6395, "com": 3086, "omp": 7019, "mpa": 6148, "pas": 7382, "mai": 5995, "ain": 2273, "int": 5224, "nte": 6749, "ten": 8997, "ena": 3953, "nan": 6360, "anc": 2407, "e t": 3652, " tr": 911, "tra": 9161, "rai": 7717, "nin": 6582, "g c": 4452, "mpl": 6155, "lia": 5724, "ian": 4934, " su": 872, "sup": 8776, "upp": 9461, "ppo": 7532, "por": 7508, "ort": 7211, "rt ": 8141, "t i": 8839, "sta": 8724, "all": 2346, "lla": 5783, "lat": 5632, "ati": 2605, "tio": 9096, "ion": 5236, "on.": 7059, "n. ": 6329, ". a": 1327, "ann": 2432, "nno": 6623, "nou": 6649, "oun": 7275, "unc": 9425, "ced": 2955, "d i": 3236, "inn": 5217, "nov": 6651, "ova": 7292, "vat": 9589, "s: ": 8445, "ek ": 3886, "k m": 5450, " mu": 655, "mul": 6186, "ult": 9401, "lti": 5883, "ti-": 9064, "-mo": 1288, "mod": 6127, "ode": 6898, "e r": 3637, "ead": 3704, "der": 3368, "acq": 2175, "cqu": 3118, "uis": 9383, "isi": 5318, "sit": 8615, "iti": 5362, "on ": 7028, "n 2": 6203, " 20": 103, "202": 1676, "021": 1521, "21 ": 1690, "enh": 3975, "nha": 6564, "han": 4742, " ce": 308, "cel": 2957, "ell": 3908, "ll ": 5778, "l a": 5519, "lys": 5930, "ysi": 9961, "sis": 8612, "s; ": 8455, "; i": 2036, "inf": 5189, "fin": 4355, "nit": 6588, "ity": 5382, "yla": 9930, "ab ": 2132, "b s": 2695, "sol": 8644, "olu": 6992, "lut": 5909, "ns ": 6658, "or ": 7149, "r c": 7633, " ef": 400, "eff": 3848, "ffi": 4336, "fic": 4344, "ici": 4989, "ncy": 6401, "y; ": 9900, "; r": 2042, "eso": 4184, "olv": 6995, "lve": 5914, "ve ": 9593, "e m": 3613, "ec ": 3747, "c f": 2849, "r p": 7669, "rot": 8060, ". t": 1360, "y l": 9841, " le": 594, "lev": 5711, "eve": 4256, "rag": 7715, "ges": 4578, " io": 557, "n m": 6267, " mo": 647, "mob": 6125, "obi": 6872, "bil": 2751, "ili": 5107, "lit": 5764, "etr": 4234, "try": 9186, "ry ": 8199, "y t": 9873, " ta": 884, "tan": 8933, "and": 2412, "nde": 6419, "em ": 3919, "m m": 5957, "ms ": 6167, "s n": 8349, "r s": 7676, "equ": 4027, "que": 7611, "uen": 9360, "nci": 6388, "cin": 3025, "g a": 4442, " au": 242, "aut": 2636, "uto": 9554, "n a": 6211, " ai": 207, "ai-": 2265, "i-d": 4899, "-dr": 1261, "dri": 3463, "riv": 7946, "ive": 5392, "ven": 9612, "en ": 3942, "n d": 6232, " da": 351, "dat": 3317, "ata": 2589, "ta ": 8910, "a a": 2060, ". f": 1337, " fa": 439, "fac": 4300, "aci": 2161, "cil": 3023, "tie": 9077, "es:": 4164, ": h": 2011, " he": 512, "hea": 4764, "adq": 2212, "dqu": 3457, "qua": 7607, "uar": 9300, "art": 2540, "rte": 8145, "san": 8475, "ant": 2445, "a c": 2066, "cla": 3053, "lar": 5625, "ara": 2501, "ra ": 7700, " ca": 296, "ali": 2341, "ifo": 5070, "orn": 7200, "rni": 8004, "nia": 6569, "a; ": 2127, "; m": 2038, "man": 6003, "anu": 2451, "nuf": 6785, "ufa": 9366, "act": 2179, "ctu": 3167, "tur": 9247, "uri": 9486, "rin": 7928, "g s": 4492, " si": 841, "ite": 5353, "s u": 8399, " us": 938, "usa": 9519, "sa ": 8458, "a e": 2075, " eu": 427, "eur": 4248, "uro": 9491, "rop": 8052, "pe ": 7395, " as": 236, "asi": 2569, "sia": 8584, "a i": 2085, "udi": 9342, "din": 3406, "col": 3083, "lor": 5832, "ora": 7166, "rad": 7708, "ado": 2211, "do ": 3438, "o s": 6841, "spr": 8675, "pri": 7546, "ngs": 6557, "gs ": 4664, "itt": 5377, "ttl": 9234, "tle": 9117, "le ": 5660, "e f": 3583, "lls": 5798, "ls ": 5853, "s g": 8318, " ge": 485, "ger": 4574, "erm": 4087, "any": 2453, "ny ": 6803, "sin": 8605, "nga": 6543, "gap": 4538, "apo": 2473, "chi": 3001, "hin": 4796, "ina": 5165, " r&": 774, "r&d": 7690, "&d ": 1117, "cen": 2962, "rav": 7748, "ave": 2641, "aus": 2634, "ust": 9533, "ral": 7721, "a w": 2112, " wa": 966, "wal": 9683, "bro": 2809, "onn": 7090, "n g": 6252, "y. ": 9889, " pa": 721, "par": 7377, "rtn": 8162, "tne": 9123, "ner": 6471, "rs:": 8124, ": c": 2008, "oll": 6983, "abo": 2140, "bor": 2794, " ro": 804, "roc": 8017, "och": 6883, "he ": 4763, "ast": 2579, "raz": 7753, "zen": 9979, "ene": 3967, "nec": 6457, "eca": 3748, "ca ": 2876, "a f": 2079, "r d": 7638, " dr": 379, "dru": 3468, "rug": 8178, "ug ": 9369, "g d": 4455, "dis": 3411, "isc": 5306, "cov": 3113, "ery": 4123, "; a": 2024, " al": 211, "lli": 5791, "s t": 8392, " th": 896, "the": 9048, "her": 4778, "rmo": 7992, "mo ": 6124, "o f": 6826, " fi": 451, "fis": 4364, "ish": 5314, "she": 8574, "er ": 4030, "r i": 7654, " il": 539, "ill": 5114, "llu": 5800, "lum": 5901, "umi": 9418, "min": 6095, "na ": 6342, "a s": 2102, "ier": 5053, "rs;": 8126, "; c": 2026, " cu": 345, "cus": 3177, "sto": 8747, "mer": 6059, "spa": 8662, "pan": 7371, "an ": 2390, "n p": 6280, " pf": 735, "pfi": 7434, "fiz": 4371, "ize": 5408, "zer": 9980, " jo": 572, "joh": 5424, "ohn": 6944, "hns": 4819, "nso": 6703, "son": 8648, "n j": 6261, "n u": 6310, " un": 928, "uni": 9438, "niv": 6596, "rsi": 8133, " na": 661, "nat": 6366, "ona": 7063, " ke": 581, "key": 5489, "ey ": 4291, "sem": 8541, "ico": 4999, "ond": 7068, "ndu": 6437, "cto": 3158, "tor": 9146, "r o": 7667, "opt": 7146, "pti": 7574, "rov": 8067, "ovi": 7298, "vid": 9635, "ide": 5024, "rs.": 8121, " pe": 728, "pee": 7408, "eer": 3836, "mpe": 6151, "pet": 7426, "eti": 4228, "tit": 9106, "ito": 5372, "ors": 7207, "nti": 6757, "tif": 9081, "ifi": 5067, "c d": 2846, "dan": 3309, "r w": 7688, "wat": 9691, "cor": 3104, "orp": 7203, "rpo": 8079, "rki": 7958, "kin": 5495, "ine": 5183, "nel": 6465, "lme": 5806, "r b": 7630, " br": 283, "ker": 5480, "er.": 4056, "r. ": 7698, ". c": 1332, "ont": 7101, "ntr": 6768, "rac": 7704, "ts:": 9220, ": m": 2013, "i-y": 4902, "-ye": 1320, "yea": 9919, "ear": 3721, "ar ": 2491, " de": 354, "dea": 3341, "eal": 3711, "als": 2357, "us ": 9501, " fd": 445, "fda": 4311, "da ": 3302, " ag": 204, "ma ": 5987, " cr": 339, "; d": 2029, "def": 3348, "efe": 3846, "fen": 4324, "nse": 6692, "se ": 8503, "s v": 8405, " vi": 956, "via": 9630, "sig": 8598, "igh": 5079, "ght": 4591, "ht ": 4852, "t s": 8865, "spi": 8667, "pin": 7463, "in-": 5163, "n-o": 6324, "-of": 1292, "off": 6917, "ff ": 4333, "leg": 5691, "ega": 3853, "gac": 4528, "acy": 2186, ". r": 1354, "rev": 7874, "enu": 3998, "nue": 6783, "ue ": 9346, " fy": 478, "fy2": 4433, "y20": 9895, "023": 1525, "23 ": 1695, "3 $": 1741, " $6": 27, "$6.": 1044, "3 b": 1745, "lio": 5756, " up": 931, "up ": 9451, "p 5": 7339, " 5%": 141, "5% ": 1846, "% y": 1098, " yo": 990, "yoy": 9947, "; b": 2025, "bre": 2804, "eak": 3709, "akd": 2290, "kdo": 5471, "dow": 3453, "own": 7307, "wn:": 9728, "n: ": 6338, ": l": 2012, "d m": 3243, "s 4": 8245, " 42": 137, "2% ": 1646, "% $": 1052, " $2": 13, "$2.": 1023, "2.8": 1659, "7b ": 1948, "b (": 2676, " (i": 54, "es)": 4158, "); ": 1192, "eno": 3981, "nom": 6637, " gr": 499, "gro": 4659, "rou": 8063, "oup": 7279, "p 3": 7338, "1% ": 1567, "2.1": 1652, "2b ": 1737, " (r": 61, "(re": 1151, " sy": 880, "sys": 8792, "yst": 9964, "ste": 8734, "tem": 8994, "ems": 3938, "oss": 7237, "sla": 8628, "b 2": 2677, "7% ": 1932, " $1": 3, "$1.": 1004, "1.8": 1583, "4b ": 1837, " (s": 63, "). ": 1186, "geo": 4571, "eog": 4005, "hy:": 4869, "y: ": 9898, " am": 217, "ame": 2376, "eri": 4079, "ric": 7902, "cas": 2912, "b; ": 2710, "; e": 2032, "mid": 6084, "idd": 5022, "ddl": 3330, "dle": 3430, "e e": 3578, " ea": 389, "eas": 3727, "st ": 8707, "t a": 8806, " af": 201, "afr": 2231, "fri": 4410, "a 2": 2056, "9% ": 1981, "a p": 2096, "pac": 7362, "cif": 3021, "c 2": 2840, "b. ": 2707, "arg": 2519, "rgi": 7889, "gin": 4602, "n 5": 6207, "%; ": 1112, "g m": 4476, " 22": 112, "; n": 2040, " ne": 665, "net": 6481, "et ": 4203, "me ": 6043, "e $": 3520, "1.2": 1574, "ash": 2566, "sh ": 8567, "h $": 4697, "1.5": 1579, ".5b": 1398, "deb": 3343, "ebt": 3744, "bt ": 2819, "t $": 8795, ".8b": 1413, "cap": 2901, "ap ": 2457, "p ~": 7353, " ~$": 998, "div": 3423, "ivi": 5397, "den": 3358, "end": 3961, "nds": 6435, "ds ": 3472, "s $": 8223, " $0": 1, "$0.": 1002, "/sh": 1431, "sha": 8571, "nnu": 6628, "nua": 6779, "ual": 9293, "l; ": 5604, "pen": 7412, "nd ": 6404, "d $": 3192, "1.1": 1571, ".1b": 1370, "1b ": 1633, " 16": 91, "6% ": 1908, "% r": 1085, "e. ": 3686, ". d": 1335, "ist": 5334, "ngu": 6561, "gui": 4673, "shi": 8577, "ng:": 6539, "g: ": 4524, ": s": 2019, "un ": 9424, "n o": 6276, " of": 691, " fr": 468, "fro": 4413, "om ": 6999, "m h": 5953, "let": 5709, "ett": 4240, "-pa": 1296, "ack": 2165, "cka": 3040, "ard": 2506, "rd ": 7776, "d 1": 3195, " 19": 95, "199": 1631, "foc": 4385, "ocu": 6892, " me": 633, "mea": 6048, "asu": 2584, "sur": 8779, "ure": 9478, "rem": 7848, "eme": 3925, "e; ": 3699, "; g": 2034, " pu": 761, "pus": 7587, "h v": 4731, "rep": 7856, "epr": 4020, "t m": 8846, "roa": 8013, "oar": 6863, "arr": 2536, "rra": 8084, "ray": 7752, "ays": 2666, "; s": 2044, "sus": 8783, "tai": 8921, "nab": 6345, "abi": 2136, "y i": 9839, "tia": 9066, "iat": 4940, "tiv": 9110, "red": 7824, "edu": 3821, "uce": 9316, " em": 404, "mis": 6101, "iss": 5331, "ssi": 8698, "sio": 8610, "s 5": 8247, " 50": 145, "50%": 1875, "0% ": 1449, "% b": 1059, " by": 293, "by ": 2835, "y 2": 9797, "203": 1683, "030": 1536, "rec": 7816, "ece": 3749, "t n": 8851, "new": 6490, "ews": 4268, "ws ": 9744, "s q": 8370, " q2": 767, "q2 ": 7602, "2 2": 1638, "024": 1529, "24 ": 1711, "4 e": 1799, "arn": 2533, "s b": 8274, " be": 262, "bea": 2735, "eat": 3733, "at ": 2587, "t e": 8826, " es": 422, "tim": 9087, "ima": 5130, "s 8": 8254, " 8%": 169, "8% ": 1957, "e g": 3592, "row": 8071, "owt": 7313, "wth": 9747, "th ": 9030, "h p": 4724, "a d": 2072, "ema": 3920, "nd.": 6415, "lent": 5697, "ent ": 3988, "nt t": 6739, "t te": 8874, " tec": 889, "tech": 8977, "echn": 3753, "chno": 3009, "hnol": 4818, "nolo": 6636, "olog": 6987, "logi": 5822, "ogie": 6933, "gies": 4600, "ies ": 5057, "es i": 4145, "s in": 8332, " inc": 547, "inc.": 5173, "nc. ": 6375, "c. (": 2874, " (ny": 58, "(nys": 1147, "nyse": 6808, "yse:": 9960, "se: ": 8525, ") op": 1173, " ope": 705, "oper": 7132, "pera": 7419, "erat": 4063, "rate": 7743, "ates": 2600, "tes ": 9017, " in ": 546, "n li": 6265, " lif": 601, "life": 5741, "ife ": 5064, "fe s": 4315, "e sc": 3643, " sci": 825, "scie": 8489, "cien": 3019, "ienc": 5051, "ence": 3957, "nces": 6383, "ces ": 2972, "es d": 4140, "s di": 8295, " dia": 368, "diag": 3392, "iagn": 4927, "agno": 2249, "gnos": 4630, "nost": 6647, "osti": 7242, "stic": 8741, "tics": 9074, "ics ": 5005, "cs a": 3136, "s ap": 8267, " app": 229, "appl": 2478, "ppli": 7530, "plie": 7486, "ied ": 5045, "ed c": 3787, "d ch": 3216, " che": 314, "chem": 2999, "hemi": 4776, "emic": 3930, "mica": 6080, "ical": 4979, "cal ": 2888, "al m": 2313, "l ma": 5559, " mar": 629, "mark": 6013, "arke": 2529, "rket": 7956, "kets": 5488, "ets.": 4239, "ts. ": 9219, "s. g": 8436, " glo": 491, "glob": 4619, "loba": 5816, "obal": 6870, "bal ": 2716, "al p": 2316, "l pr": 5573, " pre": 757, "pres": 7545, "rese": 7865, "nce ": 6377, "ce s": 2949, "e se": 3644, " ser": 835, "serv": 8551, "erve": 4120, "rves": 8192, "ves ": 9626, "es p": 4150, "s ph": 8364, " pha": 738, "phar": 7443, "harm": 4752, "arma": 2532, "rmac": 7981, "mace": 5991, "aceu": 2157, "ceut": 2977, "euti": 4251, "utic": 9550, "tica": 9073, "al b": 2304, " bio": 271, "biot": 2763, "iote": 5255, "otec": 7255, "logy": 5823, "ogy ": 6940, "gy a": 4681, "y ac": 9803, " aca": 187, "acad": 2150, "cade": 2884, "adem": 2200, "demi": 3356, "ia g": 4912, " gov": 497, "gove": 4645, "over": 7297, "vern": 9621, "ernm": 4096, "rnme": 8008, "nmen": 6613, "ment": 6058, "nt c": 6725, "t cl": 8821, " cli": 322, "clin": 3062, "lini": 5755, "inic": 5209, "nica": 6573, "al l": 2312, "l la": 5554, " lab": 588, "labs": 5611, "abs ": 2145, "s fo": 8315, " foo": 465, "food": 4390, "ood ": 7113, "d sa": 3264, " saf": 816, "safe": 8468, "afet": 2228, "fety": 4331, "ety ": 4244, "ty e": 9271, "y en": 9827, " env": 416, "envi": 4001, "nvir": 6797, "viro": 9648, "iron": 5297, "ronm": 8048, "onme": 7088, "enta": 3991, "ntal": 6748, "tal ": 8927, "al t": 2319, "l te": 5584, " tes": 894, "test": 9019, "esti": 4197, "stin": 8743, "ting": 9095, "ing ": 5195, "ng f": 6517, "g fo": 4466, " for": 466, "fore": 4396, "ensi": 3985, "ics.": 5006, "cs. ": 3146, "s. p": 8439, ". pr": 1353, " pro": 759, "prod": 7555, "rodu": 8022, "oduc": 6905, "duct": 3493, "ucts": 9328, "cts ": 3164, "ts i": 9203, "incl": 5175, "nclu": 6394, "clud": 3067, "lude": 5896, "ude ": 9340, "de a": 3334, "e an": 3554, " ana": 222, "anal": 2406, "naly": 6358, "alyt": 2370, "lyti": 5933, "ytic": 9968, "al i": 2311, "l in": 5552, " ins": 554, "inst": 5222, "nstr": 6711, "stru": 8757, "trum": 9184, "umen": 9416, "ents": 3996, "nts ": 6773, "ts m": 9205, "s ma": 8344, " mas": 630, "mass": 6017, "ass ": 2575, "ss s": 8690, "s sp": 8388, " spe": 860, "spec": 8665, "pect": 7405, "ectr": 3773, "ctro": 3162, "eter": 4223, "ters": 9013, "ers ": 4104, "rs l": 8107, "s li": 8341, " liq": 606, "liqu": 5761, "iqui": 5279, "quid": 7613, " gas": 483, "gas ": 4542, "as c": 2552, "s ch": 8285, "omat": 7003, "mato": 6022, "ogra": 6938, "grap": 4652, "raph": 7735, "aphy": 2468, "phy ": 7451, "hy a": 4866, "omic": 7011, "mic ": 6079, "ic s": 4971, "y mi": 9848, " mic": 642, "micr": 6082, "icro": 5003, "cros": 3129, "y so": 9868, " sof": 855, "soft": 8643, "oftw": 6926, "ftwa": 4423, "twar": 9258, "ware": 9688, "are ": 2513, "re c": 7790, "e co": 3571, " con": 332, "cons": 3098, "onsu": 7100, "nsum": 6714, "umab": 9411, "able": 2139, "bles": 2773, "les ": 5703, "es r": 4152, "s re": 8377, " rea": 783, "agen": 2241, "gent": 4570, "s. s": 8441, ". se": 1358, "ervi": 4121, "rvic": 8194, "vice": 9634, "ices": 4987, "es e": 4141, "s en": 8303, " enc": 410, "enco": 3959, "ncom": 6397, "comp": 3091, "ompa": 7020, "mpas": 6150, "pass": 7383, "ss m": 8688, " mai": 626, "main": 5996, "aint": 2280, "inte": 5226, "nten": 6754, "tena": 8998, "enan": 3955, "nanc": 6361, "ance": 2408, "ce t": 2950, "e tr": 3657, " tra": 912, "trai": 9164, "rain": 7719, "aini": 2277, "inin": 5211, "ning": 6583, "ng c": 6514, "g co": 4454, " com": 331, "ompl": 7022, "mpli": 6157, "plia": 7484, "lian": 5726, "ianc": 4936, "e su": 3650, " sup": 875, "supp": 8778, "uppo": 9463, "ppor": 7533, "port": 7511, "ort ": 7212, "t in": 8840, "nsta": 6709, "stal": 8729, "tall": 8930, "alla": 2349, "llat": 5786, "lati": 5635, "atio": 2610, "tion": 9098, "ion.": 5241, "on. ": 7060, "n. a": 6330, ". an": 1328, " ann": 224, "anno": 2435, "nnou": 6624, "noun": 6650, "ounc": 7276, "unce": 9426, "nced": 6379, "ced ": 2956, "ed i": 3793, "d in": 3237, " inn": 553, "inno": 5218, "nnov": 6625, "nova": 6652, "ovat": 7294, "vati": 9591, "ions": 5246, " mul": 656, "mult": 6188, "ulti": 9402, "lti-": 5884, "mode": 6128, "e re": 3639, "read": 7810, "eade": 3706, "ader": 2201, "ders": 3372, "rs a": 8096, "s ac": 8260, " acq": 189, "acqu": 2176, "cqui": 3119, "quis": 7616, "uisi": 9385, "isit": 5321, "siti": 8617, "itio": 5367, "ion ": 5237, "on 2": 7031, "n 20": 6204, " 202": 108, "2021": 1678, "021 ": 1522, " enh": 414, "enha": 3976, "nhan": 6565, "hanc": 4743, "es c": 4139, "s ce": 8284, " cel": 309, "cell": 2959, "ell ": 3909, "l an": 5522, "alys": 2369, "lysi": 5931, "ysis": 9963, "; in": 2037, " inf": 549, "fini": 4358, "init": 5213, "nity": 6593, " sol": 856, "solu": 8647, "olut": 6994, "luti": 5910, "utio": 9553, "ons ": 7095, "ns f": 6669, "for ": 4393, "or c": 7152, "r ch": 7635, " eff": 401, "effi": 3849, "ffic": 4337, "fici": 4348, "icie": 4991, "ency": 3960, "; re": 2043, " res": 793, "reso": 7867, "olve": 6996, "ve m": 9599, "e ma": 3614, "or p": 7162, "r pr": 7673, "prot": 7560, "rote": 8061, "mics": 6083, "s. t": 8442, ". te": 1361, "gy l": 4687, "y le": 9842, " lev": 598, "leve": 5712, "ever": 4259, "vera": 9619, "erag": 4060, "rage": 7716, "ages": 2243, "ges ": 4579, "s io": 8333, "on m": 7043, "n mo": 6271, " mob": 648, "mobi": 6126, "obil": 6873, "bili": 2754, "ilit": 5112, "lity": 5769, "ity ": 5383, "ty s": 9282, "y sp": 9869, "metr": 6070, "try ": 9187, "ry t": 8215, "tand": 8935, "ande": 2415, "r se": 7677, "uenc": 9361, "enci": 3958, "ncin": 6391, "cing": 3027, "ng a": 6512, "g au": 4449, " aut": 245, "auto": 2638, "utom": 9556, "toma": 9135, "mati": 6021, "on a": 7032, "n ai": 6215, " ai-": 209, "ai-d": 2266, "i-dr": 4900, "-dri": 1262, "driv": 3465, "rive": 7948, "iven": 5394, "ven ": 9613, "en d": 3946, " dat": 353, "data": 3318, "ata ": 2590, "ta a": 8911, "a an": 2061, "s. f": 8435, ". fa": 1338, " fac": 441, "faci": 4301, "acil": 2163, "cili": 3024, "liti": 5768, "itie": 5365, "ties": 9080, "ies:": 5059, "es: ": 4165, " hea": 513, "head": 4765, "eadq": 3707, "adqu": 2213, "dqua": 3458, "quar": 7610, "uart": 9302, "arte": 2542, "rter": 8146, "rs s": 8113, "s sa": 8381, " san": 819, "anta": 2447, "nta ": 6745, "ta c": 8912, "a cl": 2070, " cla": 320, "a ca": 2067, " cal": 300, "cali": 2892, "alif": 2343, "lifo": 5742, "ifor": 5071, "forn": 4398, "orni": 7201, "rnia": 8005, "; ma": 2039, " man": 628, "manu": 6008, "anuf": 2452, "nufa": 6786, "ufac": 9367, "fact": 4302, "actu": 2184, "ctur": 3168, "turi": 9250, "urin": 9487, "ring": 7930, "ng s": 6527, "g si": 4494, " sit": 847, "site": 8616, "ites": 5357, "es u": 4155, "s us": 8403, " usa": 941, "usa ": 9520, "a eu": 2077, " eur": 429, "euro": 4249, "urop": 9492, "rope": 8053, "ope ": 7129, "pe a": 7398, "e as": 3557, " asi": 238, "asia": 2570, "sia ": 8585, "ia i": 4913, "a in": 2086, "ludi": 5897, "udin": 9343, "ding": 3407, " col": 330, "colo": 3085, "olor": 6988, "lora": 5833, "prin": 7550, "ings": 5203, "ngs ": 6558, " lit": 608, "ttle": 9235, "tle ": 9118, "le f": 5666, "e fa": 3584, "lls ": 5799, "ls g": 5862, "s ge": 8320, " ger": 488, "germ": 4576, "erma": 4089, "rman": 7983, "many": 6009, "any ": 2454, "ny s": 6806, " sin": 846, "sing": 8609, "inga": 5201, "ngap": 6544, "gapo": 4539, "apor": 2474, "pore": 7510, "ore ": 7177, "e ch": 3569, " chi": 315, "chin": 3004, "hina": 4797, " r&d": 775, "r&d ": 7691, "&d c": 1118, "d ce": 3215, " cen": 310, "cent": 2964, "ente": 3992, "nter": 6755, "rs m": 8108, "s mu": 8348, "rave": 7749, "ve a": 9594, "e au": 3558, " aus": 244, "aust": 2635, "ustr": 9539, "stra": 8753, "tral": 9165, "rali": 7723, "alia": 2342, "lia ": 5725, " wal": 967, "n ge": 6253, "y. p": 9893, ". pa": 1351, " par": 724, "part": 7381, "artn": 2545, "rtne": 8163, "tner": 9124, "ners": 6476, "ers:": 4108, "rs: ": 8125, "s: c": 8448, "coll": 3084, "olla": 6984, "llab": 5784, "labo": 5610, "abor": 2141, "bora": 2795, "orat": 7170, "rati": 7744, "ns r": 6678, "s ro": 8379, " roc": 806, "roch": 8019, "oche": 6884, "che ": 2996, "astr": 2583, "a fo": 2081, "or d": 7153, " dru": 382, "drug": 3469, "rug ": 8179, "ug d": 9370, "g di": 4458, " dis": 373, "disc": 3412, "isco": 5308, "scov": 8494, "cove": 3114, "very": 9624, " all": 214, "alli": 2351, "llia": 5792, "es t": 4154, "s th": 8395, " the": 897, "ther": 9050, "herm": 4781, "ermo": 4091, " fis": 456, "ishe": 5316, "her ": 4779, "er i": 4043, " ill": 540, "lumi": 5904, "umin": 9419, "mina": 6096, "ina ": 5166, "na s": 6344, "a su": 2105, "uppl": 9462, "lier": 5738, "iers": 5055, "ers;": 4109, "rs; ": 8127, " cus": 346, "cust": 3181, "usto": 9538, "stom": 8749, "tome": 9136, "omer": 7008, "mers": 6064, " spa": 859, "pan ": 7372, "an p": 2399, " pfi": 736, "pfiz": 7435, "fize": 4372, "izer": 5410, "zer ": 9981, " joh": 573, "john": 5425, "ohns": 6945, "hnso": 4820, "nson": 6704, "son ": 8649, "on j": 7041, "n jo": 6262, "on u": 7051, "n un": 6311, " uni": 930, "univ": 9441, "nive": 6597, "iver": 5395, "vers": 9622, "ersi": 4112, "rsit": 8135, "es n": 4148, "s na": 8350, " nat": 663, "nati": 6367, "iona": 5243, "onal": 7064, "nal ": 6354, ". su": 1359, " key": 582, "key ": 5490, "y se": 9867, " sem": 833, "semi": 8544, "mico": 6081, "icon": 5001, "cond": 3095, "ondu": 7071, "nduc": 6438, "ucto": 9327, "ctor": 3159, "tor ": 9147, "or o": 7161, "r op": 7668, " opt": 706, "opti": 7147, "ptic": 7575, "cs c": 3137, "prov": 7561, "rovi": 8070, "ovid": 7299, "vide": 9637, "ider": 5028, "ers.": 4106, "rs. ": 8122, ". pe": 1352, " pee": 730, "peer": 7409, "eers": 3839, "rs c": 8098, "s co": 8288, "ompe": 7021, "mpet": 6152, "peti": 7427, "etit": 4231, "tito": 9108, "itor": 5373, "tors": 9151, "ors:": 7210, "er s": 4050, "ient": 5052, "enti": 3993, "tifi": 9082, "ific": 5068, "fic ": 4345, "ic d": 4962, "er w": 4054, " wat": 970, "wate": 9692, "ater": 2599, " cor": 335, "corp": 3107, "orpo": 7205, "rpor": 8080, "pora": 7509, "on p": 7046, "n pe": 6282, " per": 733, "rkin": 7959, "mer ": 6060, "er b": 4036, "r br": 7632, "er. ": 4057, ". co": 1333, "cont": 3099, "ontr": 7107, "ntra": 6769, "trac": 9162, "ract": 7707, "acts": 2183, "cts:": 3166, "ts: ": 9221, "s: m": 8451, "ti-y": 9065, "i-ye": 4903, "-yea": 1321, "year": 9920, "ear ": 3722, "ar d": 2494, "r de": 7640, " dea": 355, "deal": 3342, "eals": 3714, "als ": 2358, "ls u": 5871, " us ": 939, "us f": 9506, " fda": 446, "fda ": 4312, "a en": 2076, "al a": 2303, " age": 205, "genc": 4568, "ncie": 6390, "cies": 3020, "rma ": 7980, " cro": 342, "; de": 2030, " def": 358, "defe": 3349, "efen": 3847, "fens": 4325, "ense": 3984, "nse ": 6693, "se c": 8508, "ts v": 9213, "s vi": 8408, " via": 957, "via ": 9631, "sigh": 8599, "ight": 5082, "ght ": 4592, " spi": 861, "spin": 8668, "pin-": 7464, "in-o": 5164, "n-of": 6325, "-off": 1293, "off ": 6918, " leg": 596, "lega": 5692, "egac": 3854, "gacy": 4529, ". re": 1355, " rev": 795, "reve": 7875, "even": 4258, "venu": 9616, "enue": 3999, "nue ": 6784, "ue f": 9352, "e fy": 3591, " fy2": 479, "fy20": 4434, "y202": 9896, "2023": 1680, "023 ": 1526, "23 $": 1696, " $6.": 28, "3 bi": 1746, " bil": 270, "bill": 2755, "illi": 5118, "llio": 5795, "lion": 5758, "n up": 6312, " up ": 932, "up 5": 9454, " 5% ": 142, "5% y": 1863, "% yo": 1099, " yoy": 992, " bre": 285, "brea": 2805, "reak": 7811, "eakd": 3710, "akdo": 2291, "kdow": 5472, "down": 3454, "own:": 7309, "wn: ": 9729, "es a": 4137, "ed m": 3795, "d ma": 3244, "ets ": 4238, "% $2": 1054, " $2.": 14, "ts c": 9197, "; di": 2031, " gen": 486, "nomi": 6638, "s gr": 8323, " gro": 503, "grou": 4661, "roup": 8066, "oup ": 7280, "$2.1": 1024, " (re": 62, "ts s": 9210, "s sy": 8391, " sys": 882, "syst": 8793, "yste": 9965, "stem": 8738, "tems": 8996, "ross": 8059, "% $1": 1053, " $1.": 4, "$1.8": 1011, "es s": 4153, "s su": 8390, "). g": 1188, ". ge": 1342, " geo": 487, "geog": 4572, "eogr": 4006, "phy:": 7452, "hy: ": 4870, " ame": 219, "amer": 2377, "meri": 6063, "eric": 4081, "rica": 7904, "icas": 4982, "cas ": 2913, "e mi": 3616, " mid": 643, "midd": 6087, "iddl": 5023, "ddle": 3331, "dle ": 3431, "le e": 5665, "e ea": 3579, " eas": 391, "east": 3731, "ast ": 2580, "st a": 8708, "t af": 8809, " afr": 203, "afri": 2232, "fric": 4411, "ica ": 4977, "ia p": 4916, "a pa": 2097, " pac": 722, "paci": 7365, "acif": 2162, "cifi": 3022, ". fi": 1339, " fin": 454, "fina": 4356, "inan": 5169, "ces:": 2974, "gros": 4660, "oss ": 7238, "marg": 6011, "argi": 2521, "rgin": 7891, "gin ": 4603, "atin": 2609, "ng m": 6522, "g ma": 4477, "in 2": 5150, " net": 666, "net ": 6482, "et i": 4208, "inco": 5176, "come": 3089, "ome ": 7007, "me $": 6044, "e $1": 3521, "$1.2": 1007, "; ca": 2027, " cas": 305, "cash": 2914, "ash ": 2567, "sh $": 8568, "h $1": 4698, "$1.5": 1010, " deb": 356, "debt": 3344, "ebt ": 3745, "bt $": 2820, "t $1": 8796, "ket ": 5485, "et c": 4205, "t ca": 8819, " cap": 303, "cap ": 2902, "ap ~": 2459, "p ~$": 7354, " div": 374, "divi": 3425, "ivid": 5398, "iden": 5026, "dend": 3359, "ends": 3966, "nds ": 6436, "ds $": 3473, "s $0": 8224, " $0.": 2, "/sha": 1432, "shar": 8573, "hare": 4749, "re a": 7788, "annu": 2436, "nnua": 6629, "nual": 6780, "&d s": 1120, "d sp": 3269, "spen": 8666, "pend": 7413, "end ": 3962, "d $1": 3193, "$1.1": 1006, "1.1b": 1573, ".1b ": 1371, "% re": 1086, ". di": 1336, "dist": 3416, "isti": 5338, "ingu": 5205, "ngui": 6562, "guis": 4675, "uish": 9384, "ishi": 5317, "shin": 8578, "hing": 4799, "ing:": 5199, "ng: ": 6540, "n of": 6277, " off": 693, " fro": 471, "from": 4414, "rom ": 8043, "-pac": 1297, "pack": 7366, "acka": 2167, "ard ": 2507, "d 19": 3198, " 199": 96, " foc": 464, "focu": 4386, "ocus": 6893, "cus ": 3178, "us m": 9510, "s me": 8345, " mea": 634, "easu": 3732, "asur": 2585, "sure": 8781, "reme": 7849, "emen": 3927, "nt s": 6738, "; ge": 2035, "cs p": 3142, "s pu": 8369, "ia s": 4918, " sur": 876, "rint": 7931, "int ": 5225, "nt m": 6733, "t mi": 8849, "s; s": 8456, "; su": 2046, " sus": 877, "sust": 8784, "usta": 9535, "stai": 8727, "tain": 8923, "aina": 2275, "inab": 5167, "nabi": 6346, "abil": 2137, "ty i": 9275, "y in": 9840, " ini": 552, "niti": 6590, "itia": 5363, "tiat": 9068, "iati": 4942, "ativ": 2611, "tive": 9111, "ives": 5396, " red": 785, "redu": 7827, "educ": 3822, "duce": 3492, "ce e": 2940, " emi": 406, "emis": 3931, "miss": 6102, "issi": 5332, "ssio": 8700, "sion": 8611, "ns 5": 6663, "s 50": 8249, " 50%": 147, "50% ": 1876, " by ": 294, "by 2": 2836, "y 20": 9798, " 203": 109, "2030": 1684, " rec": 784, "rece": 7817, "ecen": 3750, "nt n": 6734, "t ne": 8852, " new": 668, "news": 6493, "ews ": 4269, "ws q": 9745, "s q2": 8372, " q2 ": 768, "q2 2": 7603, "2 20": 1639, "2024": 1681, "024 ": 1530, "24 e": 1715, "4 ea": 1800, " ear": 390, "earn": 3724, "arni": 2534, "rnin": 8006, "gs b": 4665, "s be": 8276, " bea": 263, "beat": 2736, "eat ": 3734, "at e": 2588, "t es": 8828, " est": 424, "stim": 8742, "tima": 9088, "imat": 5134, "mate": 6020, "es 8": 4135, " 8% ": 170, "ue g": 9353, "e gr": 3597, "grow": 4662, "rowt": 8072, "owth": 7314, "wth ": 9748, "th p": 9040, "a de": 2073, " dem": 360, "dema": 3355, "eman": 3921, "mand": 6007, "lc": 5644, "aa": 2128, "ux": 9567, "xi": 9768, "sm": 8629, "a.": 2122, "ex": 4270, "xt": 9785, "ae": 2221, "yc": 9911, "w-": 9677, "-c": 1250, "rb": 7755, "-f": 1267, "oi": 6946, "fu": 4424, "g.": 4516, "y-": 9887, "-e": 1263, "l-": 5594, "-h": 1278, "za": 9971, "i ": 4879, "hu": 4855, "nj": 6600, "ja": 5416, "ip": 5258, "w ": 9668, "wo": 9734, "rl": 7962, "aj": 2285, "25": 1724, "5.": 1869, "td": 8954, "oe": 6909, "ei": 3875, "bu": 2822, "gm": 4620, "d-": 3288, "-u": 1316, "rc": 7761, "sk": 8623, "yd": 9915, "g-": 4513, "-t": 1309, " z": 993, "o-": 6849, "we": 9696, "10": 1584, "55": 1889, "5 ": 1840, "35": 1781, " 6": 155, "60": 1911, "45": 1827, "15": 1613, "%.": 1106, "vo": 9656, ".0": 1364, "07": 1542, "7 ": 1926, ".6": 1402, "6 ": 1902, "$5": 1038, "m.": 5982, "ps": 7562, "-z": 1322, "05": 1539, "0 ": 1433, "%+": 1102, "+ ": 1193, "q1": 7598, "dj": 3426, "ju": 5433, "5m": 1900, "kf": 5491, "xp": 9774, "tm": 9119, "t.": 8901, "alc": 2332, "lco": 5646, "coa": 3076, "n (": 6200, ") i": 1167, "ind": 5178, "dus": 3500, "y p": 9855, "rim": 7926, "ary": 2547, "alu": 2365, "inu": 5227, "num": 6787, "um ": 9406, "m p": 5963, "cti": 3154, "g b": 4450, " ba": 255, "te ": 8958, "a r": 2100, "ref": 7832, "efi": 3850, " sm": 850, "sme": 8634, "mel": 6053, "elt": 3917, "fab": 4298, "abr": 2142, "bri": 2806, "cat": 2916, " ar": 230, "ved": 9604, "l o": 5565, " no": 673, "nor": 6644, "rth": 8151, "h a": 4704, "a m": 2088, "ca.": 2879, "a. ": 2123, "e o": 3623, " or": 707, "m i": 5954, "ngo": 6555, "ots": 7266, "lle": 5787, " sl": 849, " sh": 836, "hee": 4772, "eet": 3843, "t p": 8856, " pl": 746, "pla": 7474, " ex": 433, "ext": 4285, "xtr": 9788, "rus": 8186, "usi": 9529, " ae": 199, "aer": 2224, "ero": 4097, "osp": 7234, "omo": 7017, "mot": 6140, "oti": 7261, "e p": 3628, "kag": 5465, "g i": 4470, "tri": 9172, "ria": 7898, "ial": 4928, "lic": 5729, "ns.": 6686, "eng": 3972, "ngi": 6551, "nee": 6461, "sul": 8770, "g r": 4490, "ecy": 3778, "cyc": 3189, "ycl": 9912, "d p": 3254, " lo": 612, "low": 5842, "ow-": 7303, "w-c": 9678, "-ca": 1251, "car": 2907, "arb": 2502, "rbo": 7759, "bon": 2789, " el": 402, "is ": 5303, "y c": 9817, "on-": 7057, "-fr": 1271, "fre": 4408, "ree": 7828, "ee ": 3824, "joi": 5426, "oin": 6952, "t v": 8879, " ve": 952, "ntu": 6775, " ri": 797, "rio": 7932, "io ": 5232, "o t": 6843, " ti": 900, "nto": 6765, "to ": 9126, "o a": 6816, "ple": 7480, " fu": 474, "fun": 4429, "und": 9428, "ndi": 6424, "ng.": 6537, "g. ": 4517, "opr": 7142, "rie": 7913, "iet": 5060, "eta": 4217, "tar": 8937, "g p": 4484, "oce": 6881, "ess": 4188, "sse": 8693, "ses": 8552, "erg": 4075, "rgy": 7893, "-ef": 1264, "ele": 3899, "lec": 5683, "rol": 8036, "oly": 6997, "s h": 8324, " ha": 508, "hal": 4739, "ll-": 5782, "lt ": 5875, "odi": 6901, "dif": 3402, "dig": 3404, "igi": 5083, "git": 4612, "ita": 5346, "imi": 5138, "miz": 6108, "iza": 5406, "zat": 9973, "ai ": 2257, "i p": 4891, "edi": 3815, "dic": 3396, "ict": 5007, "ce.": 2952, "set": 8555, " hu": 527, "unt": 9443, "ly ": 5917, " pi": 742, "aud": 2626, "di ": 3389, "i a": 4880, "rab": 7701, "bia": 2749, "n c": 6225, " ci": 316, "cip": 3028, "n s": 6294, "lte": 5878, "pai": 7368, "n w": 6316, "rri": 8087, "ick": 4995, "ck ": 3038, "k r": 5455, "mil": 6090, "a n": 2092, "ew ": 4264, "w y": 9675, "yor": 9943, "ork": 7189, "rk ": 7953, "k f": 5444, "uir": 9381, "ire": 5285, "d f": 3226, "m a": 5939, " wo": 982, "wor": 9737, "orl": 7193, "rld": 7965, "ld ": 5648, "d a": 3204, "ls.": 5872, "maj": 5997, "ajo": 2286, "jor": 5428, "r r": 7674, "o e": 6824, "ewa": 4266, "wab": 9681, "e 2": 3533, " 25": 115, "25.": 1728, "% o": 1080, " ow": 718, "wne": 9730, "rsh": 8131, "hip": 4801, "ip ": 5259, "p a": 7340, "a l": 2087, " lt": 620, "ltd": 5877, "d. ": 3293, "e b": 3559, " bo": 277, "boe": 2788, "ein": 3879, "air": 2281, "bus": 2827, "ord": 7173, " gm": 492, "gm ": 4621, "l c": 5528, "n i": 6259, "l e": 5537, "nd-": 6414, "use": 9524, "sou": 8658, "our": 7281, "urc": 9474, "rce": 7763, " gu": 504, "ea ": 3701, "atu": 2623, "ura": 9469, "l g": 5544, "cit": 3035, "ty.": 9284, "o c": 6818, "ury": 9498, " ka": 580, "ais": 2283, "ise": 5309, "r a": 7627, "m n": 5960, "sk ": 8624, "k h": 5446, " hy": 530, "hyd": 4873, "ydr": 9916, "dro": 3466, "ro ": 8010, "o r": 6839, " ru": 811, "sal": 8469, "lon": 5825, "ong": 7078, "ng-": 6535, "g-t": 4514, "-te": 1310, "rm ": 7973, "m s": 5968, "ply": 7491, "agr": 2252, "gre": 4654, "eem": 3832, " ze": 994, "ro-": 8012, "o-c": 6850, "m b": 5940, " po": 749, "pow": 7518, "owe": 7305, "wer": 9704, "pur": 7585, "rch": 7766, "cha": 2990, "has": 4754, "ase": 2562, "wn ": 9724, "3 t": 1759, " to": 903, "tot": 9153, "ota": 7250, "l $": 5511, "$10": 1012, "10.": 1590, "0.5": 1490, "5 b": 1841, "seg": 8535, "egm": 3861, "gme": 4622, "e 5": 3541, "% a": 1057, "a 3": 2058, " 35": 128, "35%": 1782, " 60": 157, "60%": 1913, "% g": 1069, " 45": 138, "45%": 1829, "% e": 1065, "20%": 1663, "a 1": 2053, " 15": 88, "15%": 1615, " ot": 712, "oth": 7259, "r 2": 7624, "0%.": 1471, "%. ": 1107, "ale": 2334, " vo": 961, "vol": 9659, " 2.": 101, ".1 ": 1368, "1 m": 1562, "c t": 2866, "ton": 9138, "6.5": 1910, ".5 ": 1393, "5 m": 1843, "n t": 6304, "s 2": 8240, "3 n": 1753, "1.0": 1570, "7 b": 1927, "n e": 6237, " eb": 392, "ebi": 3741, "bit": 2765, "itd": 5351, "tda": 8955, "a $": 2049, ".6 ": 1403, "6 b": 1903, ".2 ": 1373, "2 b": 1640, "1 b": 1559, "$5.": 1039, "5.5": 1871, " qu": 771, "erl": 4084, "rly": 7970, "y $": 9793, "0.1": 1486, "epu": 4024, "rog": 8028, "ram": 7724, "m. ": 5983, "ert": 4114, "rti": 8154, "lly": 5801, "teg": 8984, "egr": 3864, "ted": 8979, "d u": 3276, "ups": 9464, "pst": 7571, "tre": 9169, "eam": 3716, "am ": 2372, "m f": 5949, "y n": 9850, "et-": 4214, "t-z": 8899, "-ze": 1323, "rge": 7883, "get": 4581, "t 2": 8802, "205": 1685, "050": 1540, "50 ": 1873, "ior": 5249, "orm": 7195, "rme": 7987, "oal": 6857, "n f": 6244, "r e": 7642, "sec": 8529, "ecu": 3775, "cur": 3173, "rit": 7942, "n r": 6289, "cle": 3055, "led": 5687, " 30": 124, "30%": 1772, "0%+": 1469, "%+ ": 1103, "+ p": 1202, "4 q": 1806, " q1": 765, "q1 ": 7599, ".6b": 1404, "6b ": 1923, "b a": 2679, " ad": 192, "adj": 2207, "dju": 3427, "jus": 5436, "d e": 3222, "5m ": 1901, "rkf": 7957, "kfo": 5492, "orc": 7171, "cos": 3108, "sav": 8481, "avi": 2644, "vin": 9643, "exp": 4280, "xpa": 9775, "ans": 2438, "e 3": 3537, " 3 ": 120, "b i": 2687, "inv": 5229, "nve": 6791, "stm": 8745, "tme": 9120, "nt.": 6742, "alco": 2333, "a co": 2071, "on (": 7029, ") in": 1168, " ind": 548, "indu": 5182, "ndus": 6439, "dust": 3501, "stry": 8758, "ry p": 8212, "y pr": 9861, " pri": 758, "prim": 7549, "rima": 7927, "imar": 5133, "mary": 6015, "ary ": 2548, "ry a": 8200, "y al": 9807, " alu": 216, "alum": 2367, "minu": 6100, "inum": 5228, "num ": 6788, "um p": 9408, "m pr": 5965, "ucti": 9326, "ctio": 3156, "n mi": 6270, " min": 645, "mini": 6099, "ng b": 6513, "g ba": 4451, "ite ": 5354, "te a": 8959, "e al": 3552, "a re": 2101, " ref": 786, "refi": 7833, "efin": 3851, "ltin": 5886, "g fa": 4463, " fab": 440, "fabr": 4299, "abri": 2143, "bric": 2807, "icat": 4983, "cati": 2919, ". ar": 1329, " are": 232, "area": 2515, "reas": 7814, "eas ": 3728, "as s": 2557, "s se": 8383, "rved": 8191, "ved ": 9605, "ed g": 3791, "d gl": 3232, "al o": 2315, "l op": 5567, "ns n": 6675, "s no": 8353, " nor": 676, "nort": 6645, "orth": 7217, "rth ": 8152, "th a": 9033, "h am": 4705, "ca e": 2877, "ia m": 4914, "a mi": 2091, "t as": 8813, "ia a": 4906, "ica.": 4978, "ca. ": 2880, "a. p": 2124, "ts b": 9196, "s ba": 8275, "te o": 8969, "e or": 3627, "a ch": 2069, "m in": 5955, " ing": 550, "ots ": 7267, "s bi": 8277, "ille": 5117, "s sh": 8384, " she": 838, "shee": 8575, "heet": 4773, "eet ": 3844, "et p": 4211, "t pl": 8859, " pla": 747, "plat": 7478, "late": 5633, "ate ": 2594, "te e": 8963, "e ex": 3582, " ext": 436, "extr": 4287, "trus": 9185, "usio": 9531, "ns a": 6664, " aer": 200, "aero": 2225, "eros": 4099, "rosp": 8058, "ospa": 7235, "spac": 8663, "pace": 7364, "ace ": 2156, "ce a": 2936, "tomo": 9137, "omot": 7018, "moti": 6142, "otiv": 7263, "ive ": 5393, "ve p": 9600, "e pa": 3629, "ckag": 3041, "kagi": 5466, "agin": 2246, "ging": 4606, "ng i": 6520, "g in": 4471, "stri": 8755, "tria": 9173, "rial": 7899, "ial ": 4929, "plic": 7485, "lica": 5731, "ons.": 7096, "ns. ": 6687, " eng": 413, "engi": 3974, "ngin": 6552, "gine": 4605, "inee": 5186, "neer": 6462, "eeri": 3838, "erin": 4083, "nsul": 6713, "sult": 8771, "ng r": 6526, "g re": 4491, "recy": 7823, "ecyc": 3779, "cycl": 3190, "ycli": 9914, "ling": 5754, "g su": 4497, "s. a": 8432, "ed p": 3798, "d pr": 3259, "ts l": 9204, "s lo": 8342, " low": 618, "low-": 5844, "ow-c": 7304, "carb": 2908, "arbo": 2503, "rbon": 7760, "bon ": 2790, "s el": 8301, "sis ": 8613, "s te": 8394, "gy c": 4682, "y ca": 9818, " car": 304, "bon-": 2791, "-fre": 1272, "free": 4409, "ree ": 7829, " joi": 574, "join": 5427, "oint": 6954, "nt v": 6740, "t ve": 8880, " ven": 954, "vent": 9615, "entu": 3997, "ntur": 6777, "ture": 9249, "ure ": 9479, "re r": 7802, "e ri": 3640, "rio ": 7933, "nto ": 6766, "pple": 7529, "ple ": 7481, "e fu": 3590, " fun": 477, "fund": 4430, "undi": 9431, "ndin": 6426, "ing.": 5198, "ng. ": 6538, "gy p": 4689, "prop": 7559, "ropr": 8054, "opri": 7143, "prie": 7548, "riet": 7917, "ieta": 5061, "etar": 4220, "tary": 8941, "ry s": 8214, "ng p": 6525, "g pr": 4489, "proc": 7554, "roce": 8018, "oces": 6882, "cess": 2975, "esse": 4190, "sses": 8696, "ses ": 8553, " ene": 412, "ener": 3970, "nerg": 6474, "ergy": 4078, "-eff": 1265, "nt e": 6727, " ele": 403, "elec": 3900, "lect": 5685, "trol": 9179, "s ha": 8325, " hal": 509, "hall": 4740, "all-": 2348, "t mo": 8850, " mod": 649, "modi": 6129, "fica": 4346, "ns d": 6667, " dig": 371, "digi": 3405, "igit": 5085, "gita": 4613, "ital": 5348, "ptim": 7576, "timi": 9090, "imiz": 5140, "miza": 6109, "izat": 5407, "zati": 9974, " ai ": 208, "ai p": 2263, "i pr": 4892, "pred": 7543, "redi": 7826, "edic": 3817, "dict": 3399, "icti": 5008, "ctiv": 3157, "nce.": 6378, "ce. ": 2953, "e. f": 3689, "s ke": 8337, "y as": 9811, " ass": 239, "asse": 2577, "sset": 8697, "sets": 8557, "ts h": 9202, "ly p": 5923, "fine": 4357, "iner": 5187, "neri": 6475, "erie": 4082, "ries": 7916, "s au": 8271, "a ma": 2089, "re s": 7803, "e sa": 3642, "audi": 2628, "rabi": 7702, "bia ": 2750, "san ": 8476, "an c": 2393, "lter": 5879, "ter ": 9004, "r sp": 7679, "ain ": 2274, " war": 968, "arri": 2537, "roll": 8040, "llin": 5794, "g mi": 4479, " mil": 644, "mill": 6093, "ill ": 5115, "indi": 5181, "ndia": 6425, "dian": 3393, "ana ": 2403, "ssen": 8695, "a ne": 2093, "new ": 6491, "ew y": 4265, "w yo": 9676, " yor": 991, "york": 9944, "ork ": 7190, "quir": 7615, "uire": 9382, "ired": 5288, "red ": 7825, "ed f": 3790, "d fr": 3230, " wor": 983, "worl": 9739, "orld": 7194, "rld ": 7966, "cals": 2894, "als.": 2359, "ls. ": 5873, " maj": 627, "majo": 5998, "ajor": 2287, "jor ": 5429, "or r": 7163, "le r": 5673, " ren": 791, "rene": 7854, "enew": 3971, "newa": 6492, "ewab": 4267, "wabl": 9682, "ble ": 2772, "e en": 3580, "rgy ": 7894, "gy s": 4690, "y su": 9871, "e 25": 3536, " own": 719, "owne": 7310, "wner": 9732, "ersh": 4111, "rshi": 8132, "ship": 8579, "hip ": 4802, ". cu": 1334, "ce b": 2937, "e bo": 3563, " boe": 278, "g ai": 4445, " air": 210, "us a": 9502, "e fo": 3588, "ford": 4395, "ord ": 7174, " bal": 257, "ball": 2718, "all ": 2347, "ll c": 5780, "l co": 5533, "on i": 7040, "n in": 6260, "al e": 2307, "l en": 5538, " end": 411, "user": 9527, "sers": 8550, "rs b": 8097, "te s": 8971, "e so": 3647, " sou": 857, "sour": 8659, "ourc": 7282, "urce": 9475, "rces": 7765, " gui": 506, "rs n": 8109, "natu": 6368, "atur": 2624, "tura": 9248, "ural": 9470, "ral ": 7722, "al g": 2309, "l ga": 5545, "as e": 2553, "ctri": 3161, "tric": 9175, "rici": 7906, "icit": 4994, "city": 3036, "ity.": 5384, "ty. ": 9285, "ors ": 7208, "rs r": 8112, "s ri": 8378, "ury ": 9499, "aise": 2284, "ser ": 8549, "er a": 4035, " hyd": 532, "hydr": 4874, "ydro": 9917, "sal ": 8470, " lon": 616, "long": 5827, "ong-": 7080, "ng-t": 6536, "g-te": 4515, "-ter": 1311, "term": 9010, "erm ": 4088, "rm s": 7978, "m su": 5970, "pply": 7531, "ply ": 7492, "ly a": 5918, "y ag": 9805, " agr": 206, "agre": 2253, "gree": 4655, "reem": 7830, "eeme": 3833, "ts a": 9195, " zer": 995, "zero": 9982, "ce p": 2947, "e pl": 3633, "le p": 5672, "e po": 3634, " pow": 754, "powe": 7519, "ower": 7306, "wer ": 9705, "er p": 4048, " pur": 763, "purc": 7586, "urch": 9476, "rcha": 7768, "chas": 2994, "hase": 4755, "ase ": 2563, "se a": 8507, "e ag": 3550, "nts.": 6774, "s. r": 8440, "ue b": 9349, "e br": 3564, "own ": 7308, "wn 2": 9725, "23 t": 1706, "3 to": 1760, " tot": 910, "tota": 9154, "otal": 7252, "al $": 2297, "l $1": 5512, " $10": 5, "5 bi": 1842, "on s": 7049, "n se": 6297, " seg": 831, "segm": 8536, "egme": 3862, "gmen": 4623, "5% a": 1849, " 35%": 129, "35% ": 1783, " 60%": 158, "60% ": 1914, "0% g": 1457, "% ge": 1070, "y am": 9808, " 45%": 139, "45% ": 1830, "5% e": 1852, "% eu": 1067, "pe 2": 7397, "e 20": 3535, " 20%": 104, "20% ": 1664, "0% a": 1452, "a 15": 2055, " 15%": 89, "15% ": 1616, "5% o": 1858, "% ot": 1082, " oth": 713, "othe": 7260, "er 2": 4033, "r 20": 7625, "0%. ": 1472, "%. s": 1110, ". sa": 1357, " sal": 817, "sale": 8472, "ales": 2338, "es v": 4156, "s vo": 8409, " vol": 962, "volu": 9661, "olum": 6993, "lume": 5903, "ume ": 9415, "1 mi": 1563, "n me": 6269, " met": 639, "etri": 4235, "ric ": 7903, "ic t": 4972, " ton": 906, "tons": 9142, "ns p": 6677, "s pr": 8368, ".5 m": 1395, "5 mi": 1844, "on t": 7050, "n to": 6308, "s al": 8264, "es 2": 4130, "s 20": 8241, "23 n": 1702, "3 ne": 1754, "$1.0": 1005, "7 bi": 1928, "on e": 7036, "n eb": 6238, " ebi": 393, "ebit": 3742, "bitd": 2766, "itda": 5352, "tda ": 8956, "da $": 3303, "a $2": 2051, "6 bi": 1904, "on d": 7035, "n de": 6233, "1.2 ": 1575, ".2 b": 1374, "2 bi": 1641, "on c": 7034, "n ca": 6226, "1.1 ": 1572, ".1 b": 1369, "1 bi": 1560, "n ma": 6268, ".5 b": 1394, "n di": 6234, "s qu": 8373, " qua": 772, "terl": 9009, "erly": 4086, "rly ": 7971, "e sh": 3645, " sha": 837, " rep": 792, "repu": 7859, "epur": 4025, "se p": 8515, "e pr": 3635, "prog": 7557, "rogr": 8030, "gram": 4650, "acto": 2182, "rs v": 8116, "s ve": 8407, " ver": 955, "vert": 9623, "erti": 4116, "rtic": 8155, "call": 2893, "ally": 2353, "lly ": 5802, "ly i": 5921, " int": 555, "nteg": 6752, "tegr": 8986, "egra": 3865, "grat": 4653, "ated": 2595, "ted ": 8980, "ed u": 3802, " ups": 935, "stre": 8754, "trea": 9170, "ream": 7813, "eam ": 3717, "m fo": 5950, "us s": 9515, "ty n": 9278, "y ne": 9851, "net-": 6483, "et-z": 4215, "t-ze": 8900, "-zer": 1324, "ero ": 4098, "ro e": 8011, "o em": 6825, "ns t": 6680, "s ta": 8393, " tar": 885, "targ": 8939, "arge": 2520, "rget": 7888, "get ": 4582, "t 20": 8803, " 205": 110, "2050": 1686, "rior": 7934, "orme": 7198, "t co": 8822, " coa": 328, "coal": 3077, "oal ": 6858, "l ac": 5520, "on f": 7037, "n fo": 6248, "or e": 7154, "r en": 7643, " sec": 830, "secu": 8531, "ecur": 3777, "curi": 3175, "urit": 9488, "rity": 7945, "in r": 5160, "n re": 6291, "ycle": 9913, "cled": 3058, "led ": 5688, "d co": 3218, "onte": 7104, "tent": 9002, "nt a": 6723, " 30%": 125, "0%+ ": 1470, "cts.": 3165, "24 q": 1718, " q1 ": 766, "ue $": 9347, "e $2": 3522, ".6b ": 1405, " adj": 195, "adju": 2208, "djus": 3428, "just": 5437, "uste": 9536, "sted": 8736, "ed e": 3789, "d eb": 3223, "work": 9738, "orkf": 7191, "kfor": 5493, "forc": 4394, "orce": 7172, "rce ": 7764, "ce r": 2948, "ns c": 6666, " cos": 336, "cost": 3109, "ost ": 7240, "st s": 8715, "t sa": 8866, " sav": 821, "savi": 8482, "avin": 2646, "ving": 9644, "en e": 3947, "n ex": 6243, " exp": 435, "expa": 4281, "xpan": 9776, "pans": 7375, "ansi": 2442, "nsio": 6699, "n ph": 6283, "phas": 7444, "se 3": 8506, "e 3 ": 3538, "b in": 2688, " inv": 556, "inve": 5230, "nves": 6794, "vest": 9628, "estm": 4198, "stme": 8746, "tmen": 9121, "ent.": 3990, "(a": 1130, "l)": 5590, "u.": 9289, ".s": 1423, "-s": 1303, "ub": 9304, "s-": 8428, "(d": 1135, "df": 3383, "y)": 9883, "(c": 1133, "(o": 1148, "d)": 3284, "(m": 1144, "(l": 1143, "ax": 2657, "x)": 9754, "lp": 5849, "(p": 1149, "hl": 4812, "ho": 4821, "ix": 5401, "x ": 9749, "gt": 4667, "dc": 3326, "fl": 4373, "my": 6196, "iu": 5385, "ya": 9901, "dv": 3502, "l.": 5599, " 7": 161, "73": 1941, "37": 1785, "78": 1946, "ml": 6111, "32": 1778, "fs": 4416, "ok": 6959, "p-": 7357, "-b": 1247, "k-": 5461, "-i": 1279, "xa": 9757, "kl": 5498, "rw": 8196, "ib": 4943, "e-": 3676, "00": 1493, "0+": 1473, "wh": 9710, "(u": 1154, "hw": 4860, "uv": 9566, "je": 5419, "tb": 8949, "lk": 5776, "k)": 5459, "(t": 1153, "52": 1887, "8 ": 1951, "($": 1124, ".4": 1387, "b)": 2699, ".3": 1382, "3b": 1788, "65": 1917, "4%": 1810, "$8": 1047, "82": 1966, "28": 1732, " 9": 175, "95": 1989, "nl": 6608, "70": 1935, "-n": 1289, "sd": 8498, "aq": 2486, "q ": 7592, "13": 1607, "0,": 1480, ",0": 1235, "-2": 1240, "01": 1512, "can": 2897, "irl": 5293, "rli": 7968, "nes": 6477, "p i": 7345, " (a": 43, "l) ": 5591, "r u": 7686, " u.": 922, "u.s": 9290, ".s.": 1424, "ne ": 6441, "e i": 3603, "lea": 5678, " av": 246, "ran": 7727, "nsp": 6706, "spo": 8672, "rta": 8142, "tat": 8943, "r f": 7645, "ful": 4427, "ull": 9400, "l-s": 5595, "-se": 1304, "l r": 5574, "out": 7286, "ute": 9543, "ari": 2522, "ril": 7923, "ily": 5126, " do": 375, "dom": 3442, "mes": 6065, "c i": 2853, "rna": 7999, "e l": 3608, "c m": 2856, "a v": 2110, "a h": 2083, "hub": 4856, "ubs": 9309, "dal": 3308, "las": 5628, "-fo": 1269, "t w": 8881, " (d": 48, "w p": 9673, "y) ": 9884, ") c": 1161, "arl": 2530, "lot": 5838, "ott": 7268, "tte": 9230, "e (": 3527, " (c": 46, "t) ": 8883, "hic": 4789, "cag": 2885, "ago": 2250, "go ": 4633, "o o": 6835, " (o": 59, "d) ": 3285, ") m": 1170, "iam": 4933, "ami": 2378, "mi ": 6075, " (m": 56, ") n": 1171, "k l": 5449, ") l": 1169, "los": 5835, "os ": 7224, "ang": 2420, "nge": 6545, "gel": 4563, "s (": 8230, " (l": 55, "x) ": 9755, ") p": 1174, "phi": 7445, "hil": 4794, "ila": 5100, "lad": 5615, "del": 3350, "lph": 5850, "a (": 2052, " (p": 60, "pho": 7448, "eni": 3977, "ix ": 5402, "was": 9689, "ngt": 6559, "gto": 4668, "gan": 4535, "sch": 8487, "hed": 4771, "dul": 3496, "ule": 9396, " fl": 458, "fli": 4378, "lig": 5743, "hts": 4853, " ec": 394, "eco": 3761, "ono": 7092, "omy": 7026, "my ": 6197, "miu": 6106, "ium": 5386, "m c": 5941, "cab": 2881, "bin": 2756, "fir": 4360, "irs": 5298, "rst": 8138, "t b": 8815, " bu": 288, "n b": 6220, "bas": 2725, "c e": 2848, "rgo": 7892, "rei": 7839, "eig": 3876, "y f": 9830, " fe": 447, "fee": 4322, "ees": 3840, "loy": 5846, "oya": 7323, "yal": 9902, "alt": 2360, "lty": 5892, "adv": 2217, "dva": 3503, "van": 9583, "tag": 8919, "ge ": 4548, "ede": 3811, "emp": 3935, " va": 947, "vac": 9575, "ndl": 6429, "d t": 3272, "vel": 9609, "l. ": 5600, "fle": 4376, "lee": 5689, "niz": 6598, "rde": 7779, "7 m": 1929, "max": 6023, "ax ": 2658, "dre": 3462, "neo": 6470, "eo ": 4004, "fue": 4425, "uel": 9357, "el ": 3888, "ips": 5272, "ps ": 7563, "ffs": 4339, "ams": 2386, "boo": 2792, "ook": 7117, "oki": 6963, "g e": 4459, "cem": 2960, "-ba": 1248, "sed": 8532, "hec": 4769, "eck": 3758, "-in": 1280, "iom": 5235, "plo": 7487, "oys": 7327, "ys ": 9956, "vio": 9645, "oni": 7081, "nag": 6351, "gem": 4564, "i r": 4893, "sab": 8463, "rva": 8189, "goo": 4639, "oog": 7115, "ogl": 6935, "gle": 4616, "clo": 3063, "lou": 5840, "oud": 7270, "ud ": 9331, "d d": 3219, "n h": 6256, "h t": 4730, "tex": 9020, "exa": 4272, "xas": 9758, " tu": 917, "a o": 2094, "hom": 4825, "ch ": 2980, "h c": 4707, "s o": 8354, " on": 699, "one": 7072, "d b": 3208, "tis": 9102, "rwa": 8197, "way": 9693, "ath": 2603, "tha": 9044, "ay ": 2660, "tas": 8942, "nna": 6617, "ir ": 5281, " ib": 535, "ibe": 4944, "ber": 2740, " ja": 569, "jap": 5417, "apa": 2460, "s j": 8334, "cod": 3080, "des": 3374, "esh": 4178, "lta": 5876, "r l": 7656, "nsa": 6690, "sat": 8479, "atl": 2612, "tla": 9115, "lan": 5619, "c r": 2862, "re-": 7806, "-me": 1287, ") s": 1177, " st": 866, "dir": 3409, "t. ": 8902, "eis": 3882, "ler": 5698, "t f": 8830, "yer": 9923, "s 1": 8235, " 10": 78, "100": 1591, "00+": 1502, "0+ ": 1474, "+ m": 1201, "irc": 5283, "cra": 3121, "raf": 7713, "aft": 2233, "ft ": 4419, "pra": 7539, "att": 2621, "tt ": 9228, " wh": 976, "hit": 4808, "ney": 6496, "l s": 5576, ". m": 1348, "cre": 3123, "dit": 3417, "it ": 5343, " is": 564, "ssu": 8704, "sue": 8768, "uer": 9362, "bar": 2723, "arc": 2504, "lay": 5640, "co-": 3074, "bra": 2801, "ded": 3346, "rds": 7782, "uth": 9545, "tho": 9057, "hor": 4831, "ori": 7182, " ho": 516, "hol": 4822, "old": 6971, "ldi": 5653, " (u": 65, "thw": 9061, "wes": 9708, " je": 571, "blu": 2779, "lue": 5898, ") a": 1158, "ala": 2328, "r g": 7648, "p (": 7335, "k) ": 5460, "-co": 1254, "pir": 7470, "iri": 5292, "iva": 5389, "val": 9578, " lu": 621, "fra": 4403, "pil": 7461, "ilo": 5121, "nda": 6416, "ani": 2422, "sso": 8702, "soc": 8640, "oci": 6885, "cia": 3015, "rof": 8025, "ofe": 6915, "fes": 4328, "l f": 5541, ") t": 1178, "nio": 6584, " (t": 64, ") f": 1164, "g l": 4472, "sub": 8766, "bsi": 2816, "sid": 8591, "idi": 5032, "die": 3400, "ct ": 3148, " pp": 755, "pp ": 7521, "p l": 7347, "loa": 5812, "oan": 6860, "pos": 7512, "st-": 8717, "t-c": 8891, "d r": 3261, "ry.": 8218, " $5": 24, ".8 ": 1411, "8 b": 1952, "% (": 1055, " ($": 38, "$45": 1037, ".4b": 1390, "b) ": 2700, "o 2": 6814, " 2%": 99, "($1": 1125, "r 1": 7622, " 12": 84, "12%": 1603, ".3b": 1385, "y d": 9822, "fer": 4326, "err": 4102, "rre": 8085, "reg": 7834, "egi": 3858, "gio": 4608, "aff": 2229, "fil": 4353, "es.": 4162, "y u": 9877, " 65": 159, "65%": 1918, "% l": 1074, "c 1": 2839, "% p": 1083, "c a": 2841, "oad": 6854, "ad ": 2189, "4% ": 1811, "far": 4305, "m r": 5966, "h i": 4717, " $8": 31, "22 ": 1692, "2 m": 1642, "n 4": 6206, " 4.": 133, "% d": 1063, "$15": 1018, "15 ": 1614, "h r": 4726, " 95": 178, "50+": 1877, "nli": 6609, " 70": 164, "700": 1938, "00 ": 1494, "0 r": 1444, "y 1": 9795, " 1.": 75, "dai": 3307, "ail": 2269, "sea": 8526, "ats": 2619, "n n": 6272, " ny": 683, "se-": 8520, "nas": 6364, "asd": 2560, "sda": 8500, "daq": 3311, "aq ": 2487, "lis": 5762, "oye": 7325, "yee": 9921, "e 1": 3528, " 13": 86, "0,0": 1481, ",00": 1236, "000": 1504, "0. ": 1485, "t u": 8877, "siz": 8622, "ze ": 9976, "t-2": 8887, "-20": 1241, "201": 1672, "13 ": 1608, "xte": 9786, "siv": 8620, "etw": 4241, "two": 9260, "k p": 5453, "t l": 8841, "aul": 2629, "y g": 9833, "goa": 4634, "0 d": 1439, "i i": 4886, "rse": 8128, "e w": 3666, "l v": 5587, "ola": 6967, "til": 9084, "isp": 5328, "put": 7588, "hai": 4737, "ela": 3895, "ican": 4980, "can ": 2898, "an a": 2391, "rlin": 7969, "line": 5753, "ines": 5188, "nes ": 6478, "es g": 4143, "p in": 7346, "s as": 8269, " as ": 237, "as m": 2555, " u.s": 923, "u.s.": 9291, ".s. ": 1425, "ine ": 5184, "ne i": 6449, "e in": 3605, "ry l": 8208, " lea": 595, "lead": 5679, "der ": 3369, " avi": 248, "avia": 2645, "viat": 9632, "n tr": 6309, "tran": 9166, "rans": 7731, "ansp": 2444, "nspo": 6707, "spor": 8674, "orta": 7213, "rtat": 8144, "tati": 8945, "sect": 8530, "ecto": 3772, "or f": 7155, " ful": 476, "full": 4428, "-ser": 1305, "ice ": 4985, "ce c": 2938, "e ca": 3567, "carr": 2911, "rrie": 8088, "rier": 7915, "s gl": 8321, "al r": 2317, " rou": 809, "mari": 6012, "aril": 2525, "rily": 7925, "ily ": 5127, "ly n": 5922, "y no": 9852, " dom": 377, "dome": 3443, "omes": 7009, "mest": 6067, "tic ": 9072, "ic i": 4966, "c in": 2854, "tern": 9011, "erna": 4094, "rnat": 8001, "e la": 3609, " lat": 592, "tin ": 9092, "in a": 5151, "n am": 6216, "a as": 2063, "ic m": 4968, "a vi": 2111, " hub": 528, "hubs": 4857, "ubs ": 9310, "s da": 8293, "fort": 4399, " cha": 313, "char": 2993, "chic": 3002, "hica": 4790, "cago": 2886, "ago ": 2251, " los": 617, "os a": 7225, "s an": 8266, "ange": 2421, "eles": 3902, "es (": 4128, " phi": 739, "phil": 7447, " pho": 740, " was": 969, "ashi": 2568, "ingt": 5204, "ngto": 6560, "gton": 4669, "ton ": 9139, "on r": 7048, "gan ": 4536, "). p": 1189, "de s": 3340, " sch": 824, "ched": 2998, "dule": 3498, "d pa": 3255, " pas": 725, "enge": 3973, "nger": 6547, "ger ": 4575, "er f": 4040, "ligh": 5745, "ghts": 4593, "hts ": 4854, "ts e": 9199, " eco": 395, "econ": 3763, "cono": 3097, "onom": 7093, "nomy": 6640, "prem": 7544, "remi": 7850, "emiu": 3932, "mium": 6107, "ium ": 5387, "um c": 9407, "m ca": 5942, " cab": 298, "ins ": 5221, "s fi": 8313, " fir": 455, "firs": 4363, "irst": 5299, "rst ": 8139, "t bu": 8817, " bus": 291, "busi": 2828, "usin": 9530, "sine": 8608, "ness": 6480, "ess ": 4189, "in c": 5152, "n ba": 6221, " bas": 260, "basi": 2727, "sic ": 8590, "ic e": 4963, " fre": 470, "reig": 7840, "eigh": 3877, "t an": 8812, "anci": 2410, "illa": 5116, "llar": 5785, "ry f": 8205, " fee": 450, "fees": 4323, "ees ": 3841, "es l": 4146, " loy": 619, "loya": 5847, "oyal": 7324, "yalt": 9903, "alty": 2364, "lty ": 5893, "ty p": 9280, "ram ": 7725, "adva": 2218, "dvan": 3504, "vant": 9586, "ntag": 6746, "tage": 8920, "age ": 2237, "ge m": 4555, "mile": 6091, "iles": 5106, "ptio": 7577, "ns v": 6682, "s va": 8406, " vac": 948, "n pa": 6281, "es b": 4138, "s bu": 8281, "ed t": 3801, "d tr": 3275, "trav": 9168, "avel": 2642, "ts f": 9200, "s fl": 8314, " fle": 460, "flee": 4377, "leet": 5690, "et m": 4210, "oder": 6900, "niza": 6599, "on o": 7045, "n or": 6279, " ord": 709, "orde": 7175, "rder": 7780, "s bo": 8279, "ner ": 6472, "nabl": 6347, "le a": 5661, "n fu": 6250, " fue": 475, "fuel": 4426, "uel ": 9358, "hips": 4803, "ips ": 5273, "ps c": 7566, "s ca": 8283, "offs": 6921, "set ": 8556, "t pr": 8861, "rams": 7726, "ams ": 2387, "ms d": 6171, " boo": 280, "book": 2793, "okin": 6964, "king": 5496, "ng e": 6516, "g en": 4460, "ncem": 6380, "ceme": 2961, "-bas": 1249, "base": 2726, "ased": 2564, "sed ": 8533, "chec": 2997, "heck": 4770, "biom": 2760, "rics": 7907, "gy e": 4684, " emp": 407, "empl": 3937, "mplo": 6158, "ploy": 7489, "oys ": 7328, "s ad": 8261, " adv": 198, "vanc": 9584, "ed a": 3785, "avio": 2647, "ioni": 5245, "onic": 7082, "nics": 6576, "cs f": 3139, "t ma": 8847, "mana": 6005, "anag": 2405, "nage": 6352, "agem": 2240, "geme": 4565, "t sy": 8872, "ems ": 3939, "ms a": 6168, "s ai": 8263, "ute ": 9544, "e op": 3626, "n pr": 6287, "eser": 4175, "erva": 4119, "n sy": 6303, "ms p": 6177, "s pa": 8362, "s go": 8322, " goo": 496, "goog": 4641, "oogl": 7116, "ogle": 6936, "gle ": 4617, "le c": 5663, "e cl": 3570, " clo": 323, "clou": 3065, "loud": 5841, "oud ": 7271, "ud d": 9333, "es m": 4147, "n he": 6257, "rs f": 8101, " tex": 895, "texa": 9021, "exas": 4273, "xas ": 9759, "e ba": 3560, "ases": 2565, "oma ": 7002, " cit": 318, "ty t": 9283, "y te": 9874, "ech ": 3752, "ch c": 2982, "or a": 7150, "es o": 4149, "s on": 8356, " one": 702, "d br": 3212, " bri": 286, "riti": 7944, "itis": 5368, "ish ": 5315, "ays ": 2667, " cat": 306, "y pa": 9856, "as f": 2554, "air ": 2282, "iber": 4945, "eria": 4080, " jap": 570, "japa": 5418, "apan": 2462, "s jo": 8335, "ures": 9482, "res ": 7863, "ts d": 9198, "s de": 8294, " del": 359, "r li": 7658, " lin": 605, "s tr": 8398, "ansa": 2440, "atla": 2613, "tlan": 9116, "lant": 5624, "anti": 2448, "ntic": 6760, "ic r": 4970, "pre-": 7541, "merg": 6062, "erge": 4076, "rger": 7886, "er c": 4037, "r co": 7637, " sta": 867, "star": 8731, "tar ": 8938, "ar a": 2492, "ce i": 2944, "dire": 3410, "irec": 5287, "rect": 7821, "t. c": 8904, "s le": 8340, "re t": 7804, "eler": 3901, "lers": 5701, "ns g": 6670, "t en": 8827, " ent": 415, "ntit": 6763, "titi": 9107, "es f": 4142, "s fr": 8316, "nt f": 6728, "yers": 9925, "rs 1": 8094, "s 10": 8237, " 100": 82, "100+": 1594, "00+ ": 1503, "0+ m": 1477, "n an": 6217, "ual ": 9294, "l pa": 5569, "gers": 4577, "craf": 3122, "raft": 7714, "aft ": 2234, "us e": 9505, "ge p": 4556, "ney ": 6497, "el s": 3894, "l su": 5582, "r re": 7675, "rs d": 8099, "el p": 3893, "hasi": 4756, "asin": 2571, ". ma": 1349, "r pa": 7670, "s cr": 8289, " cre": 340, "cred": 3125, "edit": 3818, "dit ": 3418, "it c": 5344, "card": 2909, "issu": 5333, "ssue": 8705, "s ci": 8286, " bar": 259, "lays": 5642, "ge c": 4551, " co-": 327, "bran": 2802, "rand": 7729, "nded": 6420, "ded ": 3347, "d ca": 3214, "ards": 2510, "rds ": 7783, "ds a": 3474, "auth": 2637, "utho": 9548, "thor": 9058, "hori": 4833, "orit": 7187, "leas": 5682, "ease": 3729, "unit": 9440, "nite": 6589, "ited": 5356, "d ai": 3205, "es h": 4144, "s ho": 8328, " hol": 517, "hold": 4823, "oldi": 6974, "ldin": 5654, "sout": 8660, "outh": 7288, "west": 9709, "est ": 4194, "t ai": 8811, "blue": 2780, "lue ": 5899, "e ai": 3551, "r gr": 7651, "w-co": 9679, "-cos": 1257, "st c": 8709, "fron": 4415, "ront": 8049, "onti": 7106, "tier": 9079, "ier ": 5054, "r in": 7655, " riv": 801, "riva": 7947, "ival": 5390, "vals": 9581, "ls l": 5865, "than": 9045, " fra": 469, "fran": 4405, "ranc": 7728, "s la": 8339, "r ag": 7629, "ts p": 9208, "s pi": 8365, " pil": 743, "pilo": 7462, "ilot": 5122, "lots": 5839, "atte": 2622, "tend": 9000, "ants": 2449, "chan": 2992, "anic": 2424, "s un": 8400, " und": 929, "unde": 9430, "nder": 6423, "soci": 8641, "ocia": 6886, "prof": 7556, "rofe": 8026, "ofes": 6916, "fess": 4329, "essi": 4191, "al f": 2308, "ts (": 9191, "s (a": 8231, "kers": 5483, "rs u": 8115, "nion": 6585, "t fi": 8832, "ng l": 6521, "g le": 4473, "t su": 8871, " sub": 873, "subs": 8767, "ubsi": 9312, "bsid": 2817, "sidi": 8593, "dies": 3401, "care": 2910, "ares": 2518, " act": 191, "act ": 2180, " loa": 613, "loan": 5814, "oans": 6862, "ans ": 2439, "s po": 8367, " pos": 752, "post": 7514, "ost-": 7241, "st-c": 8719, "t-co": 8892, "-cov": 1258, "covi": 3115, "vid ": 9636, "id r": 5015, "d re": 3262, "reco": 7820, "ecov": 3766, "ry. ": 8219, ".8 b": 1412, "8 bi": 1953, "% ($": 1056, " 2% ": 100, " ($1": 39, "er 1": 4032, " 12%": 85, "12% ": 1604, "g lo": 4475, "ty d": 9270, "y de": 9823, "ed r": 3799, " reg": 787, "regi": 7835, "egio": 3860, "gion": 4609, " aff": 202, "affi": 2230, "fili": 4354, "ilia": 5108, "liat": 5727, "iate": 4941, "tes.": 9018, "es. ": 4163, "hy u": 4868, "s. d": 8434, " 65%": 160, "65% ": 1919, " atl": 241, "ic 1": 4958, "ic a": 4959, "er l": 4044, "r lo": 7659, "load": 5813, "oad ": 6855, "d fa": 3227, " ave": 247, "aver": 2643, "ge f": 4553, " far": 443, "re p": 7801, "m re": 5967, "th i": 9038, "h in": 4718, "l ex": 5540, "n. f": 6333, "2 mi": 1643, "n op": 6278, "t $2": 8797, "on l": 7042, "uidi": 9376, "idit": 5034, "dity": 3420, "ty $": 9265, " $15": 10, "sh r": 8570, "h re": 4727, "50+ ": 1878, "nlin": 6610, "ne a": 6444, "al c": 2305, "l ca": 5529, "capa": 2903, "apac": 2461, "acit": 2164, " 1.2": 76, ".2 m": 1375, " dai": 352, "ly s": 5924, " sea": 829, "ats ": 2620, "on n": 7044, " nys": 684, "yse-": 9959, "nasd": 6365, "asda": 2561, "sdaq": 8501, "daq ": 3312, " lis": 607, "list": 5763, "iste": 5337, "loye": 5848, "oyee": 7326, "se 1": 8504, "0,00": 1482, ",000": 1237, " lar": 590, "larg": 5627, "rges": 7887, "gest": 4580, "st u": 8716, "ne b": 6445, "et s": 4213, "st-2": 8718, "t-20": 8888, " mer": 638, "er e": 4039, "r ex": 7644, "exte": 4286, "xten": 9787, "tens": 9001, "sive": 8621, "netw": 6485, "etwo": 4242, "twor": 9261, "k pr": 5454, "t lo": 8845, "uct ": 9325, "ct s": 3150, "ty g": 9273, "y go": 9834, " goa": 494, "goal": 4635, "oals": 6859, "ls n": 5867, "s ne": 8351, "ns 2": 6662, "i in": 4887, "dive": 3424, "erse": 4110, "rse ": 8129, "e wo": 3668, "alle": 2350, "llen": 5789, "nges": 6548, "s fu": 8317, "vola": 9660, "olat": 6970, "atil": 2608, "tili": 9086, "ty l": 9276, "r di": 7641, "disp": 3415, "ly c": 5919, "y ch": 9819, "chai": 2991, "hain": 4738, "in d": 5153, "ao": 2455, "i)": 4896, "r-": 7696, "h-": 4733, "tv": 9254, "v ": 9571, "40": 1817, "80": 1960, "yp": 9949, "n;": 6339, "pm": 7493, "ik": 5091, "cv": 3183, "aw": 2650, "mc": 6038, "mm": 6112, "zo": 9991, "zu": 9994, "(f": 1139, "ii": 5090, "-v": 1317, "cc": 2921, "nk": 6601, "17": 1623, "7.": 1933, "75": 1942, "62": 1916, "8m": 1973, "m)": 5975, "$3": 1029, "6m": 1924, "ks": 5504, ".7": 1406, "7m": 1949, "d;": 3299, "a-": 2117, "oj": 6956, "0-": 1483, "-3": 1243, "0m": 1549, "4)": 1812, "3.": 1766, "2m": 1738, "m;": 5984, "mb": 6026, "wd": 9695, "dm": 3432, "5g": 1898, "q-": 7595, "-l": 1281, "d o": 3252, "pto": 7578, "nc ": 6372, "c (": 2838, "i) ": 4897, ") d": 1162, "esi": 4179, "ign": 5086, "gns": 4631, "sel": 8537, "fib": 4342, "er-": 4055, "c n": 2858, "c c": 2844, "mpo": 6159, "pon": 7505, "nen": 6468, ". i": 1345, "hot": 4837, "oto": 7264, "pe.": 7399, "e h": 3598, " hi": 514, "hig": 4792, "gh-": 4588, "-sp": 1306, "eed": 3826, "tod": 9130, "det": 3377, "tac": 8918, "aco": 2174, "m t": 5971, "tel": 8989, "evi": 4260, "vis": 9650, "tv ": 9255, "m d": 5944, "gn ": 4625, " 40": 134, "400": 1821, " 80": 171, "800": 1964, "g t": 4499, "sil": 8601, "i d": 4882, "hyp": 4875, "ype": 9950, "sca": 8485, "y v": 9880, "els": 3915, "rib": 7900, "ibu": 4954, "but": 2829, "dba": 3324, "bac": 2713, "k d": 5442, "b l": 2689, "dio": 3408, "ava": 2640, "nch": 6384, "thi": 9051, "-fi": 1268, "ilm": 5120, "ilt": 5123, "pol": 7502, "riz": 7949, "gar": 4540, " ni": 671, "a t": 2106, "ipe": 5262, "i t": 4895, "wan": 9685, "n; ": 6340, "hou": 4840, "ous": 7283, "tow": 9156, "enn": 3979, "nns": 6626, "nsy": 6716, "syl": 8789, "ylv": 9932, "lva": 5912, "ia.": 4923, " eq": 419, "uip": 9379, "ipm": 5266, "pme": 7494, "ndo": 6430, "dor": 3450, "lik": 5746, "ike": 5092, "ke ": 5474, "e v": 3661, "co ": 3072, " ep": 417, "epi": 4015, "pit": 7471, "tax": 8948, "too": 9143, "ool": 7118, "ols": 6989, "m o": 5962, " oe": 689, "oem": 6911, "ms.": 6180, "cis": 3032, "wei": 9701, "s z": 8417, "adb": 2192, "ban": 2719, "omm": 7013, "mmu": 6120, "mun": 6189, "ama": 2373, "maz": 6024, "azo": 2671, "zon": 9992, " we": 971, "web": 9700, "oso": 7232, " az": 251, "azu": 2673, "zur": 9995, "re.": 7807, " ra": 776, "raw": 7750, "aw ": 2651, "w m": 9671, " ts": 916, "mc ": 6039, "c g": 2850, "tum": 9242, "ere": 4069, "rp ": 8077, " (f": 51, "oli": 6978, "acc": 2151, "cce": 2922, "eli": 3905, "ink": 5214, "nk ": 6602, "k t": 5457, "gy.": 4692, "o h": 6828, "i f": 4884, "r t": 7683, "r v": 7687, "es;": 4166, "dep": 3363, "epa": 4011, "rtm": 8160, "t d": 8823, ".0 ": 1365, "0 m": 1441, "on;": 7061, " 75": 166, "75%": 1943, "m) ": 5976, "n 1": 6201, "; t": 2047, "t 1": 8801, "o n": 6834, "rks": 7960, "10%": 1586, "1.7": 1582, "deo": 3361, "o b": 6817, "d; ": 3300, "y 5": 9799, "40%": 1819, "% c": 1060, "ia-": 4921, "a-p": 2120, "h 2": 4701, "4 p": 1805, "roj": 8032, "oje": 6957, "jec": 5420, "cte": 3152, "d 2": 3199, "d h": 3234, "600": 1915, "00m": 1509, "0m ": 1550, "m (": 5935, "of ": 6914, "id-": 5017, "24)": 1721, "1 2": 1557, "4 r": 1807, "3.5": 1769, ".5m": 1400, "m u": 5972, "p 1": 7336, "25%": 1726, "15.": 1617, "5.2": 1870, ".2m": 1380, "m; ": 5985, "$50": 1040, "50m": 1884, "ged": 4561, "p f": 7344, "b t": 2696, "o m": 6832, "emb": 3922, "mbl": 6033, "xpe": 9777, "-po": 1298, "; p": 2041, "ivo": 5400, "vot": 9662, "ot ": 7249, "o d": 6821, "d 5": 3203, " 5g": 153, "5g ": 1899, "oom": 7121, "aq-": 2488, "q-l": 7596, "-li": 1283, "ed o": 3797, "d op": 3253, "tron": 9180, "roni": 8047, "cs i": 3140, "inc ": 5172, "nc (": 6373, " des": 364, "desi": 3376, "esig": 4181, "sign": 8600, "igns": 5089, "ns m": 6674, " sel": 832, "sell": 8540, "ells": 3912, "ls f": 5861, " fib": 452, "fibe": 4343, "ts o": 9207, "s op": 8357, "nic ": 6572, "ic c": 4961, "c co": 2845, "ompo": 7023, "mpon": 6160, "pone": 7506, "onen": 7075, "nent": 6469, "s. i": 8437, ". in": 1346, "y ph": 9858, "phot": 7449, "hoto": 4839, "cs s": 3144, "ly u": 5926, "y un": 9878, "ed s": 3800, "d st": 3270, "stat": 8732, "tate": 8944, "ia e": 4910, "ope.": 7130, "pe. ": 7400, "e. p": 3690, "e hi": 3601, " hig": 515, "high": 4793, "igh-": 5081, "eed ": 3827, "l tr": 5585, " las": 591, "rs p": 8111, "dete": 3378, "etec": 4222, "tect": 8978, "ms f": 6173, "r da": 7639, "com ": 3087, " tel": 890, "tele": 8991, "leco": 5684, "ecom": 3762, "le t": 5675, "e te": 3654, "visi": 9652, "isio": 5320, "s cu": 8290, "tom ": 9134, "m de": 5945, "ign ": 5087, "n fi": 6247, "s 40": 8246, " 400": 136, "g tr": 4502, "s si": 8385, " sil": 844, "sili": 8602, "ilic": 5109, "lico": 5733, "con ": 3093, "cs m": 3141, "s mo": 8347, "modu": 6130, "odul": 6906, "ules": 9397, "geti": 4583, "etin": 4230, "ai d": 2260, "a ce": 2068, "rs h": 8103, "s hy": 8329, " hyp": 533, "hype": 4876, "yper": 9951, "pers": 7424, "scal": 8486, "cale": 2891, "ale ": 2335, "ud p": 9335, "els ": 3916, "ls d": 5859, "istr": 5340, "trib": 9174, "ribu": 7901, "ibut": 4955, "back": 2714, "ack ": 2166, "des ": 3375, "s av": 8272, "alan": 2331, "lanc": 5620, "anch": 2409, "nche": 6386, "e ph": 3631, "rs t": 8114, " thi": 898, " fil": 453, " pol": 750, "olar": 6969, "ntai": 6747, "g fi": 4465, "bers": 2743, "s he": 8326, " lan": 589, "land": 5621, "and ": 2413, "d te": 3273, "n pl": 6285, "plan": 7476, "ts n": 9206, "s ni": 8352, " hou": 523, "hous": 4841, "ston": 8750, "n te": 6306, "as a": 2551, "ento": 3994, " pen": 731, "penn": 7414, "enns": 3980, "nnsy": 6627, "nsyl": 6717, "sylv": 8790, "ylva": 9933, "lvan": 5913, "vani": 9585, "ania": 2423, "ia. ": 4924, "rs i": 8104, "e eq": 3581, " equ": 420, "equi": 4028, "quip": 7614, "uipm": 9380, "ipme": 5267, "pmen": 7495, "vend": 9614, "endo": 3965, "ndor": 6432, "dors": 3451, " lik": 603, "like": 5747, "ike ": 5093, "e ve": 3663, " mat": 631, "teri": 9008, "ials": 4931, "pita": 7472, "y mo": 9849, "d to": 3274, " too": 907, "tool": 9144, "ools": 7120, " oem": 690, "oems": 6912, "ems.": 3940, "ms. ": 6181, "s. c": 8433, "rs k": 8106, "ey c": 4292, "y cl": 9820, "clie": 3061, "lien": 5737, "cisc": 3033, "sco ": 8493, "te b": 8960, " bro": 287, "broa": 2810, "road": 8014, "oadb": 6856, "adba": 2193, "dban": 3325, "band": 2721, "rato": 7745, "ator": 2617, "cast": 2915, "t ch": 8820, "hart": 4753, "comm": 3090, "ommu": 7016, "mmun": 6121, "muni": 6191, "unic": 9439, "er o": 4047, "s am": 8265, " ama": 218, "amaz": 2374, "mazo": 6025, "azon": 2672, "zon ": 9993, "on w": 7053, "n we": 6317, " web": 973, "d mi": 3246, "roso": 8057, "osof": 7233, "oft ": 6925, "ft a": 4420, "t az": 8814, " azu": 252, "azur": 2674, "zure": 9996, "ure.": 9480, "re. ": 7808, "e. s": 3692, "s ra": 8376, " raw": 781, "raw ": 7751, "aw m": 2652, "w ma": 9672, "ls s": 5870, "trat": 9167, "ntum": 6776, "tum ": 9243, "eren": 4071, "rent": 7855, "orp ": 7204, "form": 4397, "rmer": 7988, " acc": 188, "acce": 2152, "ccel": 2923, "elin": 3906, " mac": 624, "gy. ": 4693, "y. c": 9891, "ar s": 2499, "r su": 7681, "or t": 7165, "r tr": 7685, "ver ": 9618, "er v": 4053, "es; ": 4167, "ts u": 9212, "us d": 9504, " dep": 362, "depa": 3364, "epar": 4012, "artm": 2544, "rtme": 8161, "nt d": 6726, "t de": 8824, "se f": 8511, "or s": 7164, "cure": 3174, "ns o": 6676, "0 mi": 1442, "ion;": 5242, "on; ": 7062, "om s": 7000, "m se": 5969, " 75%": 167, "75% ": 1944, "5% (": 1848, " dri": 380, "n 10": 6202, "l me": 5560, "etro": 4236, "orks": 7192, " 10%": 80, "10% ": 1587, "0% (": 1451, " vid": 958, "ideo": 5027, "deo ": 3362, " 40%": 135, "40% ": 1820, "0% c": 1453, "sia-": 8586, "ia-p": 4922, "a-pa": 2121, "0% e": 1455, "% em": 1066, " eme": 405, "emea": 3926, "a. s": 2125, "th 2": 9032, "h 20": 4702, "24 p": 1717, "proj": 7558, "roje": 8033, "ojec": 6958, "ject": 5421, "ecte": 3770, "cted": 3153, "ed 2": 3784, "d 20": 3200, "30% ": 1773, "aler": 2337, "00m ": 1510, "s of": 8355, " of ": 692, "mid-": 6086, "-202": 1242, "024)": 1531, "q1 2": 7600, "1 20": 1558, "24 r": 1719, "4 re": 1808, "e $6": 3526, ".5m ": 1401, "m up": 5973, "up 1": 9452, " 25%": 116, "et l": 4209, "loss": 5837, "ss $": 8685, "s $1": 8225, " $50": 26, "$50m": 1042, "50m ": 1885, "0m d": 1552, "$100": 1013, "100m": 1596, "5% r": 1860, "cuse": 3179, "used": 9526, "d si": 3267, "aged": 2239, "ged ": 4562, "n fr": 6249, "chip": 3005, " to ": 904, "ssem": 8694, "semb": 8542, "embl": 3924, "expe": 4282, "xper": 9779, "pert": 7425, "rtis": 8159, "tise": 9104, "ise ": 5310, "-pow": 1299, " ami": 220, "amid": 2380, "mid ": 6085, " 5g ": 154, " nas": 662, "daq-": 3313, "aq-l": 2489, "q-li": 7597, "-lis": 1284, "sinc": 8607, "ince": 5174, "ce 2": 2935, " 201": 107, "n)": 6318, "88": 1970, "sq": 8676, "-1": 1238, "14": 1609, "cf": 2978, "vr": 9663, "rf": 7877, "-g": 1273, "gw": 4678, "vs": 9664, "cm": 3069, "c-": 2871, "-r": 1301, "eh": 3869, "ox": 7315, "pg": 7438, "$9": 1050, "18": 1625, "85": 1967, "yi": 9926, " 0": 70, "/e": 1428, "5-": 1868, "2-": 1649, "on)": 7054, "n) ": 6319, "y h": 9836, "ac ": 2147, "m e": 5947, "mme": 6114, "erc": 4064, "rci": 7770, "fou": 4400, "a u": 2108, " tw": 920, "0 s": 1445, " sq": 863, "sq ": 8677, "q f": 7593, " ft": 472, "vie": 9640, "200": 1667, "nad": 6349, "ada": 2190, "mex": 6071, "exi": 4278, "xic": 9769, "xpo": 9782, "rts": 8165, "lim": 5748, "mit": 6103, "al.": 2326, "roo": 8050, "top": 9145, "op ": 7126, "rn ": 7998, "140": 1612, "0 c": 1437, "var": 9587, "iab": 4925, "rig": 7920, "ige": 5077, "flo": 4379, "ow ": 7301, "spl": 8670, "r h": 7652, "g u": 4503, "hus": 4859, "l h": 5548, "izo": 5414, "coo": 3101, "ole": 6975, "d w": 3280, "500": 1879, "0 t": 1446, "mal": 6000, "l w": 5589, "ump": 9422, "coi": 3081, "oil": 6950, "tea": 8974, "bui": 2823, "uil": 9377, "ild": 5101, "lau": 5637, "aun": 2630, "h s": 4728, "ltr": 5888, "dec": 3345, "p r": 7350, "sma": 8631, "mmi": 6116, "nne": 6618, "vit": 9654, "y r": 9862, "y w": 9882, "eel": 3830, " er": 421, "vs ": 9665, "pip": 7468, " vs": 963, " ul": 926, "ism": 5325, "smi": 8635, "iso": 5326, "so ": 8639, " 90": 176, "01 ": 1513, "cer": 2967, "fie": 4350, "d l": 3238, "ed-": 3805, "ean": 3719, "rob": 8015, "obo": 6874, "bot": 2797, "mpr": 6161, "sor": 8651, "uiv": 9388, "cho": 3010, "hoo": 4829, "hos": 4834, "s w": 8410, "reh": 7837, "eho": 3873, "urn": 9489, "rne": 8002, "ruc": 8173, " mc": 632, "thy": 9062, "y b": 9813, " sk": 848, "ks ": 5505, "irm": 5294, "rms": 7993, "ane": 2418, "ox ": 7316, "ci ": 3014, "i c": 4881, "k i": 5447, "l u": 5586, "upg": 9459, "not": 6648, "tab": 8915, "e u": 3658, "ol ": 6966, "l d": 5534, "4.5": 1816, "p 2": 7337, "oy ": 7319, "s 9": 8256, "95%": 1990, "t 5": 8805, "y 9": 9800, "90%": 1984, "% u": 1094, "% m": 1075, "o i": 6829, "4 $": 1793, "$25": 1028, "250": 1729, "ckl": 3048, "klo": 5499, "og ": 6928, "g $": 4436, " $3": 17, "$30": 1032, "300": 1774, "p $": 7332, ".2b": 1378, "b e": 2684, "erp": 4100, "rpr": 8081, "ris": 7937, "g 1": 4438, "2m ": 1739, " $9": 34, "$18": 1020, "eps": 4021, "0.8": 1491, "roe": 8023, "oe ": 6910, "d y": 3282, " yi": 988, "yie": 9927, "iel": 5046, "eld": 3897, " 0.": 71, "0.4": 1489, "e 6": 3543, "h 1": 4700, "019": 1516, "3 d": 1748, "ich": 4988, "-10": 1239, "cy ": 3185, "ime": 5136, "16 ": 1622, "eek": 3829, "20+": 1665, "+ r": 1203, "ry h": 8206, "ac m": 2148, "g se": 4493, "m en": 5948, "ered": 4070, "omme": 7014, "mmer": 6115, "merc": 6061, "erci": 4067, "rcia": 7771, "cial": 3016, ". fo": 1340, " fou": 467, "foun": 4401, "ound": 7277, "ed 1": 3783, "tere": 9007, "a us": 2109, "a op": 2095, "o ma": 6833, "0000": 1507, "000 ": 1505, "00 s": 1499, " sq ": 864, "sq f": 8678, "q ft": 7594, " ft ": 473, " 200": 106, "2000": 1670, "t. a": 8903, "us c": 9503, " can": 302, "cana": 2899, "anad": 2404, "nada": 6350, "ada ": 2191, "da m": 3306, "a me": 2090, " mex": 640, "mexi": 6072, "exic": 4279, "xico": 9770, "ico ": 5000, "expo": 4284, "xpor": 9783, "orts": 7219, "rts ": 8166, " lim": 604, "limi": 5750, "imit": 5139, "mite": 6104, "nal.": 6355, "al. ": 2327, "l. p": 5601, "de p": 3339, " roo": 808, "nits": 6592, "its ": 5376, "ts r": 9209, "l se": 5578, "00 c": 1496, " var": 951, "aria": 2523, "rant": 7732, "ant ": 2446, " flo": 461, "flow": 4381, "low ": 5843, "it s": 5345, " han": 510, "hand": 4744, "ng u": 6529, "al h": 2310, "l ho": 5550, " hor": 520, "oriz": 7188, "rizo": 7951, "izon": 5415, "onta": 7103, "chil": 3003, "hill": 4795, "ller": 5790, "ed w": 3804, "d 10": 3197, "500 ": 1880, "rmal": 7982, "mal ": 6001, "al w": 2322, "ce h": 2943, "e he": 3600, "heat": 4768, " hot": 522, "r st": 7680, " ste": 868, "team": 8975, "m co": 5943, "ntro": 6771, "ols ": 6990, "ls b": 5857, " bui": 289, "buil": 2824, "uild": 9378, "ildi": 5102, "ms b": 6169, "ng d": 6515, "g de": 4457, "n fa": 6245, "n su": 6302, "ts 2": 9193, " lau": 593, "laun": 5638, "aunc": 2631, "unch": 9427, "nch ": 6385, "ch s": 2987, "a se": 2103, "rs e": 8100, "d fi": 3228, "ltra": 5889, " dec": 357, "ire ": 5286, "s sm": 8386, " sma": 851, "smar": 8633, "mart": 6014, "art ": 2541, "ommi": 7015, "mmis": 6117, "onin": 7083, " iot": 558, "iot ": 5254, "conn": 3096, "onne": 7091, "nnec": 6619, "nect": 6458, "ecti": 3771, "tivi": 9112, "ivit": 5399, "vity": 9655, "y re": 9864, "ery ": 4124, "ls e": 5860, " pip": 745, "pipe": 7469, "mize": 6110, "le s": 5674, "e sp": 3648, "ed d": 3788, "ds e": 3476, " mot": 653, "moto": 6143, "otor": 7265, "d se": 3265, "d de": 3220, " cer": 311, "cert": 2970, "rtif": 8157, "ifie": 5069, "fied": 4351, "ed l": 3794, "d le": 3240, "-com": 1255, "iant": 4937, "nt p": 6736, "n le": 6264, "lean": 5680, "ean ": 3720, "an m": 2398, "n ro": 6293, " rob": 805, "robo": 8016, "obot": 6875, "boti": 2798, "otic": 7262, "de c": 3335, "ls c": 5858, "ress": 7869, "esso": 4192, "ssor": 8703, "sors": 8655, "s fa": 8311, "n co": 6230, "quiv": 7618, "uiva": 9389, "vale": 9580, "alen": 2336, "l bu": 5527, "offi": 6920, "fice": 4347, "s sc": 8382, "ls h": 5863, " hos": 521, "hosp": 4835, "ospi": 7236, "spit": 8669, "tals": 8931, "rs w": 8117, "s wa": 8411, "areh": 2516, "reho": 7838, "ouse": 7285, "uses": 9528, "mili": 6092, "lita": 5765, "itar": 5349, "ry m": 8209, "y ma": 9846, "r cl": 7636, "ts t": 9211, " tur": 919, "turn": 9251, "onst": 7099, "truc": 9183, "ruct": 8175, "buti": 2830, "n ne": 6274, "rks ": 7961, "firm": 4362, "irms": 5295, "rms ": 7994, "ms e": 6172, "ms l": 6175, "ke a": 5475, "d en": 3224, "ane ": 2419, "ne t": 6455, "t le": 8843, " len": 597, "l li": 5556, "ls i": 5864, "er g": 4041, "k in": 5448, "al u": 2320, "ts g": 9201, " upg": 934, " not": 677, "tabl": 8917, "e us": 3660, "r fo": 7647, "ool ": 7119, "l di": 5536, "ls m": 5866, "le m": 5670, "t fa": 8831, "ies.": 5058, "up 2": 9453, "0% y": 1467, "yoy ": 9948, "oy s": 7322, "s 95": 8258, " 95%": 179, "95% ": 1991, "5% p": 1859, "arts": 2546, "hy 9": 4865, " 90%": 177, "90% ": 1985, "0% u": 1466, "% us": 1095, "% ca": 1061, "o in": 6830, "l. s": 5602, "es q": 4151, "24 $": 1712, " $25": 16, " bac": 256, "ackl": 2170, "cklo": 3049, "klog": 5500, "log ": 5821, " $30": 19, "$300": 1033, "300m": 1776, "en c": 3945, "y. f": 9892, "ap $": 2458, ".2b ": 1379, "terp": 9012, "erpr": 4101, "rpri": 8082, "pris": 7551, "rise": 7939, "se v": 8519, "e va": 3662, " val": 949, "valu": 9582, "alue": 2366, "rail": 7718, "aili": 2272, "ilin": 5111, "ng 1": 6509, "a $1": 2050, " $18": 11, "0m n": 1553, "m ne": 5961, " eps": 418, "eps ": 4022, "ps $": 7564, "ee c": 3825, " roe": 807, "roe ": 8024, "25% ": 1727, "5% d": 1851, "% di": 1064, "nd y": 6413, "d yi": 3283, " yie": 989, "yiel": 9928, "ield": 5047, "eld ": 3898, "th 1": 9031, "5% c": 1850, "2019": 1675, "23 d": 1699, " nic": 672, "nich": 6574, "m ma": 5958, "t sh": 8868, "% co": 1062, "us i": 9509, "y sa": 9866, " vs ": 964, "acy ": 2187, "y sy": 9872, "uces": 9319, "ead ": 3705, " tim": 902, "time": 9089, "mes ": 6066, "es 1": 4129, "s 12": 8238, " 20+": 105, "20+ ": 1666, "resi": 7866, "esil": 4182, "ilie": 5110, "n do": 6235, "urci": 9477, "rcin": 7772, "g po": 4488, "p)": 7355, "y,": 9885, ", ": 1205, "s,": 8424, "a,": 2115, "93": 1987, "d:": 3297, "),": 1179, "o,": 6847, "l,": 5592, "dy": 3516, "wi": 9713, "t,": 8884, "dp": 3455, "n,": 6320, "t;": 8907, ".c": 1419, "m,": 5979, "yb": 9904, "ku": 5508, "tf": 9022, "49": 1835, "43": 1825, "xc": 9760, "e)": 3670, "e,": 3674, "1m": 1634, "m+": 5977, "oz": 7329, "gp": 4646, "pc": 7391, "o.": 6851, "11": 1598, "b,": 2703, "0b": 1544, " -": 69, "33": 1779, "%,": 1104, "wr": 9740, "o p": 6836, "p) ": 7356, "fte": 4421, "ry,": 8216, "y, ": 9886, ", r": 1229, "ret": 7871, "epl": 4016, "lac": 5612, "ts,": 9216, "s, ": 8425, ", a": 1206, "es,": 4160, ", b": 1208, "bat": 2728, " it": 566, "veh": 9607, "ehi": 3871, "icl": 4997, ". h": 1343, "gh ": 4587, "h n": 4722, "aro": 2535, "a, ": 2116, ", f": 1215, "dar": 3314, "pep": 7416, ", n": 1224, "now": 6653, "t r": 8862, "r n": 7665, "ed:": 3808, "d: ": 3298, ": u": 2020, "), ": 1180, ", c": 1209, ", p": 1227, "rto": 8164, "o, ": 6848, ", m": 1222, "o (": 6812, "ake": 2292, ", e": 1214, "l, ": 5593, "bod": 2786, "ody": 6907, "dy ": 3517, "flu": 4382, "ids": 5035, "rs,": 8119, ", w": 1234, " wi": 978, " bl": 273, "bla": 2769, ", t": 1232, "ues": 9363, "t, ": 8885, "pa ": 7361, "e d": 3573, "on,": 7055, "n, ": 6321, ", l": 1221, "t; ": 8908, "onl": 7085, "g v": 4504, "cea": 2954, "eau": 3738, "opa": 7127, "m, ": 5980, ": e": 2009, " ev": 430, "ev ": 4254, "v c": 9572, ", h": 1218, "hyb": 4871, "ybr": 9909, "rid": 7909, " oi": 695, "il ": 5095, "gy:": 4694, "ory": 7221, "loo": 5828, " e-": 387, "e-c": 3679, "atf": 2601, "tfo": 9023, "wit": 9721, "ith": 5358, "sam": 8473, "day": 3321, "liv": 5770, "acl": 2172, ", g": 1217, "+ s": 1204, "0 u": 1447, " 14": 87, "40 ": 1818, "+ d": 1198, " 2 ": 98, "cam": 2895, "amp": 2385, "mpu": 6163, "ano": 2437, "oke": 6961, "iar": 4938, "us.": 9517, "bos": 2796, "gat": 4543, ", d": 1212, "who": 9711, "esa": 4168, "exc": 4274, "xcl": 9763, "lus": 5906, "pea": 7401, "ts;": 9222, "y (": 9794, ", o": 1226, "(co": 1134, "rar": 7738, " 55": 151, "55%": 1890, "e, ": 3675, "sho": 8580, "hop": 4830, "ops": 7144, "m+ ": 5978, "sac": 8464, " gp": 498, "pc ": 7392, "co.": 3075, "o. ": 6852, "fed": 4320, "no ": 6631, ": 2": 2005, "$11": 1014, "11.": 1600, "b, ": 2704, ", s": 1231, "l (": 5513, "rs)": 8118, "s) ": 8419, ".0b": 1366, "l 5": 5518, "a 5": 2059, "b d": 2682, ".5%": 1396, "% t": 1092, " $4": 20, "$4.": 1035, "5b ": 1897, "l 2": 5515, ".2%": 1376, "%, ": 1105, "zed": 9977, "nfl": 6500, "fla": 4374, " im": 541, "imp": 5143, "14 ": 1610, "r $": 7620, "1.6": 1581, "m g": 5951, "rtu": 8167, "toc": 9128, "ock": 6887, "ipp": 5270, "ppe": 7524, "ped": 7406, "y o": 9853, "wri": 9741, "wns": 9733, "$20": 1026, " ob": 686, "uto ": 9555, "o pa": 6837, "n au": 6219, "ry, ": 8217, ", re": 1230, " ret": 794, "reta": 7872, "etai": 4218, "tail": 8922, "plac": 7475, "lace": 5613, "t pa": 8857, "ts, ": 9217, "s, a": 8426, "cces": 2924, "sori": 8654, "orie": 7184, "es, ": 4161, " bat": 261, "batt": 2729, "tter": 9231, ", an": 1207, " and": 223, "nd m": 6410, " veh": 953, "vehi": 9608, "ehic": 3872, "hicl": 4791, "icle": 4998, "cles": 3059, "les.": 5704, ". he": 1344, "igh ": 5080, "th c": 9034, "h ca": 4708, "roli": 8039, "olin": 6981, ", fo": 1216, "stan": 8730, "anda": 2414, "ndar": 6417, "dard": 3315, "s pe": 8363, " pep": 732, "now ": 6654, "et r": 4212, "t re": 8864, "aile": 2271, "iler": 5105, "ler ": 5699, "er n": 4046, "ved:": 9606, "ed: ": 3809, "), c": 1182, ", ca": 1210, " ric": 798, " bra": 284, "assi": 2578, "ssis": 8701, "body": 2787, "ody ": 6908, " flu": 462, "ers,": 4105, "rs, ": 8120, "per ": 7418, " bla": 274, "ades": 2202, "ands": 2417, "ds i": 3477, "cle ": 3056, "le d": 5664, "e di": 3576, "tery": 9015, "ry i": 8207, "ion,": 5239, "on, ": 7056, "er r": 4049, "er t": 4051, ", co": 1211, " onl": 703, "onli": 7086, "deri": 3371, "ng v": 6530, "s: e": 8449, "pand": 7373, " ev ": 431, "harg": 4750, "g ca": 4453, " hyb": 531, "hybr": 4872, "ybri": 9910, "brid": 2808, "rid ": 7910, "d ba": 3209, "ry c": 8202, "y co": 9821, " oil": 696, "oil ": 6951, "il p": 5098, "ogy:": 6941, "gy: ": 4695, "nven": 6792, "ntor": 6767, "tory": 9152, "ory ": 7222, "bile": 2753, "ile ": 5104, "e ap": 3555, "app ": 2476, " e-c": 388, "e-co": 3680, "erce": 4065, "latf": 5634, "atfo": 2602, "tfor": 9025, "orm ": 7196, " wit": 981, "with": 9722, "ith ": 5359, "th s": 9042, " sam": 818, "day ": 3322, "deli": 3352, "eliv": 3907, "live": 5771, "rs o": 8110, "s or": 8358, " ora": 708, "orac": 7167, "racl": 7706, "acle": 2173, "in t": 5162, "d an": 3206, "0+ s": 1479, " sto": 869, "stor": 8751, "tore": 9149, "ores": 7178, "300 ": 1775, "n ce": 6227, "te c": 8961, " cam": 301, "camp": 2896, "pac ": 7363, "idia": 5033, "diar": 3394, "iary": 4939, "us. ": 9518, ": ma": 2014, " bos": 281, " gat": 484, "gate": 4544, ", de": 1213, " den": 361, "enso": 3986, " who": 977, "whol": 9712, "hole": 4824, "oles": 6977, "lesa": 5706, "esal": 4169, " exc": 434, "excl": 4276, "xclu": 9764, "clus": 3068, "lusi": 5908, "usiv": 9532, "ve d": 9596, "buto": 2831, "utor": 9558, "ese ": 4172, "ts; ": 9223, "ne p": 6452, "mpan": 6149, "pany": 7376, " (co": 47, " rar": 779, "rare": 7739, "). c": 1187, "sume": 8773, "umer": 9417, " 55%": 152, "55% ": 1891, ", pr": 1228, "l re": 5575, "repa": 7857, "r sh": 7678, " sho": 840, "shop": 8581, "ops ": 7145, "; se": 2045, "ly t": 5925, "y tr": 9876, "nsac": 6691, "sact": 8466, "acti": 2181, "s: a": 8447, "one ": 7073, "y au": 9812, " fed": 449, "fede": 4321, "eder": 3812, "dera": 3370, "eral": 4061, "et d": 4206, " no ": 674, ": 20": 2006, " $11": 6, "1.2b": 1576, "al (": 2298, "5% $": 1847, " $5.": 25, "ail ": 2270, "y us": 9879, "les:": 5705, " dow": 378, "para": 7378, "rabl": 7703, "e st": 3649, "0% t": 1465, "% to": 1093, "al s": 2318, "l sa": 5577, "s: 2": 8446, "e $3": 3523, " $4.": 21, ", ma": 1223, ".5b ": 1399, "l 20": 5516, "ld 1": 5649, "d 1.": 3196, "e $5": 3525, "$500": 1041, "500m": 1883, "rize": 7950, "ized": 5409, "in i": 5156, "infl": 5191, "nfla": 6501, "flat": 4375, "nsit": 6700, " imp": 544, "impa": 5144, "pact": 7367, "g pa": 4485, "d. d": 3294, "d wo": 3281, "0% r": 1463, "m gr": 5952, " gre": 501, "o de": 6822, "shan": 8572, "stoc": 8748, "tock": 9129, "ock ": 6888, "t fo": 8833, "ry o": 8211, "y op": 9854, "n po": 6286, "writ": 9742, "owns": 7311, "ns $": 6659, "s $2": 8226, " $20": 15, "$200": 1027, "200m": 1671, "te p": 8970, "97": 1993, "yn": 9937, "dw": 3509, "tp": 9157, "kt": 5507, "tc": 8950, "xe": 9765, "ym": 9934, "ko": 5501, "uo": 9449, "26": 1730, "m-": 5981, "mw": 6194, "sr": 8680, "zi": 9986, "53": 1888, "md": 6040, "sn": 8637, "hb": 4758, "bm": 2781, " x": 984, "hp": 4842, "38": 1786, " +": 68, "96": 1992, "58": 1894, "9.": 1982, "57": 1893, "8.": 1958, "39": 1787, "81": 1965, "44": 1826, "94": 1988, "$7": 1045, "72": 1940, "uy": 9568, "77": 1945, "34": 1780, "47": 1833, "u ": 9288, "e j": 3606, "ak ": 2289, "yne": 9940, "k c": 5441, "upe": 9455, "ino": 5219, "im ": 5129, "ok ": 6960, "k e": 5443, "23.": 1708, "3. ": 1767, "rdw": 7784, "dwa": 3510, "l 1": 5514, " 17": 92, "+ c": 1196, "cou": 3111, " ip": 559, "hon": 4827, "ipa": 5260, "c l": 2855, "apt": 2482, "atc": 2591, "tch": 8952, "wea": 9697, "ods": 6902, "dev": 3379, "epo": 4017, "ixe": 5403, "xed": 9766, "ads": 2215, "et.": 4216, "p s": 7351, "ios": 5251, "pps": 7536, "mus": 6193, " ic": 537, "pay": 7388, "aym": 2663, "yme": 9935, "fit": 4365, "lth": 5880, "uts": 9562, "rca": 7762, "gam": 4533, "e n": 3619, "pub": 7582, "ubl": 9307, "bli": 2774, "dve": 3505, "iou": 5256, "ly.": 5927, "fea": 4316, " 18": 93, "18 ": 1626, "8 m": 1954, "4 c": 1797, "sep": 8547, "ept": 4023, "pte": 7573, "mbe": 6028, "fol": 4387, "4 s": 1809, "t h": 8836, "025": 1533, "dos": 3452, "3 m": 1751, "4 a": 1794, "neu": 6486, "ach": 2158, "ri ": 7897, "voi": 9658, "oic": 6947, "iff": 5065, "ffe": 4334, "p t": 7352, "cki": 3046, "-to": 1314, "to-": 9127, "-en": 1266, "ncr": 6399, "cry": 3132, "ryp": 8220, "ypt": 9952, " id": 538, "tou": 9155, "fi ": 4341, "elo": 3913, "lop": 5829, "opm": 7137, "isr": 5329, "sra": 8681, "rae": 7711, "ael": 2223, " uk": 924, "uk ": 9391, "g o": 4482, " ou": 714, "tso": 9224, "atr": 2618, "nam": 6359, "azi": 2669, "zil": 9987, "ldw": 5657, "dwi": 3514, "wid": 9714, "niu": 6594, "ars": 2538, "msu": 6182, "sun": 8774, "ung": 9436, " ko": 585, " ol": 697, "scr": 8495, "een": 3834, "md ": 6041, "ony": 7110, "ras": 7740, "g g": 4468, "gor": 4642, "la ": 5606, "gla": 4615, "aso": 2573, "c b": 2843, "mem": 6054, "emo": 3933, "mor": 6136, "t-m": 8895, "t g": 8834, "oda": 6897, "etf": 4225, "c u": 2867, "abe": 2134, "bel": 2737, "obe": 6871, "be ": 2734, "ibm": 4950, "bm ": 2782, "idu": 5038, "dua": 3488, "tun": 9245, "une": 9434, "0 e": 1440, " ed": 396, "uca": 9314, "12 ": 1602, "dod": 3440, " aw": 249, "awa": 2653, "+ a": 1194, "ps.": 7568, "gal": 4532, "opp": 7140, "po ": 7499, "vo ": 9657, "o l": 6831, " hp": 524, "p e": 7343, "ndr": 6433, "roi": 8031, "oid": 6948, "osy": 7246, "win": 9717, "ows": 7312, "aws": 2655, "bet": 2745, "x s": 9753, "pot": 7516, "sif": 8596, "m 2": 5937, "3.2": 1768, ". b": 1330, "s 7": 8252, "% i": 1072, " 52": 150, "n 8": 6209, "10 ": 1585, "0 b": 1435, "n 7": 6208, " 7%": 162, "% w": 1097, "n $": 6199, "% s": 1087, "e 4": 3540, "9 b": 1976, "4 b": 1795, " $7": 29, " 6%": 156, "25 ": 1725, " 23": 113, ".9 ": 1416, "9 m": 1978, " 11": 83, "bsc": 2814, "cri": 3126, " 1 ": 73, "aid": 2267, "$3.": 1030, "h e": 4712, "h f": 4713, "w $": 9669, "k b": 5440, "buy": 2832, "uyb": 9569, "yba": 9905, "cks": 3050, "4 g": 1801, "uit": 9386, "ose": 7228, "m l": 5956, "loc": 5817, "itr": 5374, "eu ": 4246, "s 3": 8243, "law": 5639, "sui": 8769, "mon": 6133, "opo": 7139, "p c": 7341, "utr": 9560, "30 ": 1771, "us-": 9516, "epe": 4013, "00%": 1500, "le i": 5668, "tina": 9093, "inat": 5170, "s so": 8387, "re d": 7791, "ces.": 2973, "s st": 8389, "te l": 8967, "e lo": 3612, "park": 7380, "ark ": 2528, "rk c": 7954, "uper": 9456, "rtin": 8158, "o ca": 6819, "nia ": 6570, "ia u": 4920, " coo": 333, "yees": 9922, "000+": 1506, "023.": 1528, "23. ": 1709, " har": 511, "hard": 4748, "ardw": 2511, "rdwa": 7785, "dwar": 3511, "re o": 7800, "ne s": 6454, "al 1": 2299, "+ co": 1197, " cou": 337, "coun": 3112, "ount": 7278, "untr": 9445, "ntri": 6770, "trie": 9176, "s eu": 8307, "reat": 7815, "n as": 6218, "hone": 4828, "ones": 7076, "ps a": 7565, "e wa": 3667, "atch": 2592, " wea": 972, "wear": 9699, "ods ": 6903, " aud": 243, "udio": 9344, " str": 870, "eami": 3718, "amin": 2382, "ming": 6098, " dev": 366, "devi": 3381, "evic": 4261, " hom": 518, "home": 4826, "peak": 7402, "aker": 2294, " vis": 960, "ixed": 5404, "xed ": 9767, "real": 7812, "alit": 2344, "ty h": 9274, "y he": 9837, "re i": 7796, "ios ": 5252, "apps": 2480, "pps ": 7537, "e mu": 3618, " mus": 658, " ori": 711, "orig": 7185, "rigi": 7922, "igin": 5084, "gina": 4604, "inal": 5168, "nt i": 6731, "ud s": 9336, "tora": 9148, "orag": 7168, "ge b": 4550, "ups ": 9465, " pay": 727, "paym": 7389, "ayme": 2664, "ymen": 9936, "e fi": 3586, "heal": 4766, "ealt": 3715, "alth": 2362, "lth ": 5881, "outs": 7290, "e ar": 3556, " arc": 231, "ade ": 2198, "e ga": 3593, " gam": 482, "gami": 4534, "le n": 5671, "e ne": 3621, " pub": 762, "publ": 7583, "ubli": 9308, "blic": 2775, "e bu": 3565, "adve": 2219, "dver": 3506, "tisi": 9105, "isin": 5319, "ious": 5257, "ly. ": 5928, "y. a": 9890, "ntel": 6753, "tell": 8992, "elli": 3911, "llig": 5793, "lige": 5744, "igen": 5078, " fea": 448, "feat": 4317, "eatu": 3737, "embe": 3923, "mber": 6029, "ber ": 2741, "ne 2": 6442, "ar p": 2497, "ect ": 3768, "canc": 2900, "cele": 2958, "24 s": 1720, "t ho": 8838, "2025": 1682, "s ar": 8268, " arm": 234, "e si": 3646, " neu": 667, "neur": 6487, "mach": 5992, "achi": 2160, "hine": 4798, "ne l": 6450, "e le": 3610, "lear": 5681, "core": 3106, "re m": 7798, "l si": 5579, "priv": 7552, "y di": 9824, " dif": 370, "diff": 3403, "iffe": 5066, "ffer": 4335, "fere": 4327, "ntia": 6758, "tial": 9067, "y ap": 9810, "rack": 7705, "acki": 2169, "ckin": 3047, "ng t": 6528, "pare": 7379, "renc": 7853, "ncy ": 6402, "-to-": 1315, "nd e": 6407, "cryp": 3133, "rypt": 8221, "id t": 5016, "ch i": 2984, "d bi": 3211, "c se": 2865, "deve": 3380, "evel": 4257, "velo": 9611, "elop": 3914, "lopm": 5831, "opme": 7138, "nt. ": 6743, "t. f": 8905, "8 mi": 1955, "d la": 3239, "usti": 9537, " isr": 565, "isra": 5330, "srae": 8682, "rael": 7712, " uk ": 925, "dia ": 3391, "ng o": 6524, " out": 715, "d fo": 3229, "egat": 3855, "ron ": 8045, "stro": 8756, "n ch": 6228, "na i": 6343, "braz": 2803, "razi": 7754, "azil": 2670, "zil ": 9988, "l as": 5523, "y pl": 9859, "es 5": 4133, "rldw": 7967, "ldwi": 5658, "dwid": 3515, "wide": 9715, "ide ": 5025, "e ge": 3594, "ars ": 2539, "an s": 2401, "n sa": 6295, "sams": 8474, "amsu": 2388, "msun": 6183, "sung": 8775, "ung ": 9437, "a di": 2074, "spla": 8671, "play": 7479, " pan": 723, "nels": 6467, " scr": 827, "reen": 7831, "ens ": 3983, "ns s": 6679, "tel ": 8990, "el a": 3889, "qual": 7608, "g so": 4495, " sen": 834, "sens": 8546, "nsor": 6705, "ng g": 6518, "gori": 4643, "rill": 7924, "lass": 5630, "n ho": 6258, " hon": 519, "on h": 7039, "ai a": 2258, "ic b": 4960, "s mi": 8346, " mem": 636, "s at": 8270, "veri": 9620, "nt g": 6729, "al v": 2321, "rang": 7730, "nge ": 6546, "t di": 8825, "l so": 5580, "labe": 5608, "abel": 2135, "lope": 5830, " ado": 197, "se i": 8512, " ibm": 536, "ibm ": 4951, "ndiv": 6428, "vidu": 9639, "idua": 5039, "dual": 3489, "ises": 5313, "ortu": 7220, "rtun": 8169, "tune": 9246, "une ": 9435, "ne 5": 6443, "e 50": 3542, " 500": 149, "00 e": 1497, " edu": 399, "duca": 3491, "ucat": 9315, "s fe": 8312, "al d": 2306, " dod": 376, "dod ": 3441, "ud c": 9332, "awar": 2654, "ward": 9687, "d lo": 3242, "st m": 8712, "e 2 ": 3534, "ps. ": 7569, "se m": 8514, "ce g": 2942, "e go": 3596, "e pi": 3632, "ndro": 6434, "oid ": 6949, "ecos": 3765, "cosy": 3110, "osys": 7247, "tem ": 8995, " win": 979, "wind": 9718, "e am": 3553, " aws": 250, "aws ": 2656, "s cl": 8287, "et a": 4204, " spo": 862, "y st": 9870, "ar c": 2493, "r ca": 7634, "ne e": 6448, "e de": 3575, "e mo": 3617, "ty m": 9277, "on g": 7038, "n go": 6254, "e fe": 3585, " tea": 888, "od c": 6896, "d cl": 3217, "clas": 3054, "sifi": 8597, "re e": 7792, "ve c": 9595, "ps s": 7567, "2% y": 1647, "n ep": 6241, ". br": 1331, "% ma": 1076, "0 bi": 1436, " 7% ": 163, "e vi": 3664, "on 1": 7030, "0% s": 1464, "% se": 1089, "es $": 4127, "200 ": 1668, "00 b": 1495, " lic": 600, "lice": 5732, "icen": 4986, "cens": 2963, "nsin": 6698, "9 bi": 1977, "4 bi": 1796, "5% g": 1854, "% gr": 1071, "rest": 7870, "7 mi": 1930, "9 mi": 1979, "ch a": 2981, "ubsc": 9311, "bscr": 2815, "scri": 8496, "d. f": 3295, " $3.": 18, " tri": 914, "24 c": 1714, "ts $": 9190, "n lo": 6266, "rm d": 7976, "sh f": 8569, "h fl": 4715, "ow $": 7302, "% st": 1091, " buy": 292, "buyb": 2833, "uyba": 9570, "ybac": 9906, "acks": 2171, "cks ": 3051, "urn ": 9490, " on ": 700, "n eq": 6242, "quit": 7617, "uity": 9387, "clos": 3064, "lose": 5836, "osed": 7229, " loc": 614, "lock": 5819, "in s": 5161, "y an": 9809, " ant": 225, "rust": 8187, "ust ": 9534, "st e": 8710, " eu ": 428, "a ap": 2062, "re f": 7793, "es 3": 4131, "s 30": 8244, "s do": 8296, " mon": 651, "poly": 7504, "neut": 6488, "eutr": 4252, "utra": 9561, "al 2": 2300, "030 ": 1537, "rsif": 8134, "poli": 7503, "itic": 5364, " us-": 940, "a te": 2107, " ten": 892, "inde": 5180, "ndep": 6422, "depe": 3365, "epen": 4014, "ende": 3963, "nden": 6421, "use ": 9525, "se d": 8509, "ty r": 9281, "100%": 1593, "00% ": 1501, "ky": 5509, "p.": 7358, "g,": 4511, "lb": 5643, "c)": 2869, "sf": 8560, "sg": 8563, "aba": 2133, "hiu": 4810, "c v": 2868, "11 ": 1599, "nev": 6489, "eva": 4255, "vad": 9577, "nt-": 6741, "t-s": 8896, "-st": 1307, "rox": 8073, "oxi": 7317, "ig ": 5074, "ley": 5714, "-gr": 1276, "osi": 7230, "s y": 8416, "n 3": 6205, "t o": 8854, "3 c": 1747, "ned": 6459, "cke": 3044, "p. ": 7359, "e) ": 3671, "150": 1618, "mou": 6144, "add": 2195, "ddi": 3328, "lid": 5734, "ida": 5018, "omb": 7004, "mbi": 6030, "sts": 8759, "% v": 1096, "eth": 4226, "ds.": 3482, ": r": 2018, "ng,": 6533, "g, ": 4512, "gic": 4596, "rer": 7860, " ov": 716, "x a": 9750, " ab": 185, "xpl": 9780, "rmi": 7989, "-ma": 1286, "pie": 7459, "woo": 9735, "nim": 6580, "3 r": 1756, "0.3": 1488, ".3 ": 1383, " ye": 986, "7.5": 1934, "n q": 6288, "avo": 2648, "esg": 4176, "-ne": 1290, "ne-": 6456, "e-f": 3681, " 21": 111, "an b": 2392, "y fo": 9832, "cusi": 3180, "lith": 5767, "ithi": 5360, "thiu": 9053, "hium": 4811, "on b": 7033, "ry r": 8213, "y li": 9843, "in e": 5154, "n el": 6239, "ic v": 4973, "ent-": 3989, "-sta": 1308, "stag": 8726, "s: l": 8450, "tono": 9141, " fla": 459, "ley ": 5715, "a pr": 2099, "-gra": 1277, "grad": 4649, "rade": 7709, "tone": 9140, "ne d": 6447, "depo": 3367, "epos": 4019, "posi": 7513, "osit": 7231, "sits": 8618, "e li": 3611, "te t": 8972, "e ta": 3653, "gets": 4584, "00 m": 1498, "ns l": 6673, "e 1 ": 3529, "nt o": 6735, "t op": 8855, "23 c": 1698, "se 2": 8505, "lann": 5622, "anne": 2433, "ned ": 6460, "e ac": 3548, "icke": 4996, "el m": 3892, "t li": 8844, "blac": 2770, "lack": 5614, "k ma": 5451, "ss p": 8689, "ssin": 8699, "g. a": 4518, "d us": 3278, "$150": 1019, "150 ": 1619, "50 m": 1874, "n gr": 6255, " gra": 500, "gran": 4651, "nt 2": 6722, "g pl": 4487, "nt r": 6737, "roun": 8065, "und ": 9429, "d mo": 3247, "y 10": 9796, "uall": 9296, " add": 194, "addi": 2196, "ddit": 3329, "diti": 3419, "lida": 5735, "idat": 5021, "dati": 3320, "n. p": 6334, "ed b": 3786, "d ex": 3225, "ty c": 9269, "comb": 3088, "ombi": 7005, "mbin": 6032, "g ex": 4461, "osts": 7243, "sts ": 8760, "rine": 7929, "ne m": 6451, "e me": 3615, "ds. ": 3483, "y ad": 9804, "lowe": 5845, "er u": 4052, "gy i": 4686, "sity": 8619, "frie": 4412, "rien": 7914, "d so": 3268, "uth ": 9546, "n br": 6224, "ne c": 6446, "ors.": 7209, "g op": 4483, "ing,": 5197, "ng, ": 6534, "ns u": 6681, "ateg": 2596, "tegi": 8985, "egic": 3859, "gic ": 4597, "c al": 2842, " pot": 753, "pote": 7517, "oten": 7258, "urer": 9481, "rers": 7861, "n. c": 6331, "ucer": 9318, "cers": 2969, "g fr": 4467, "s. m": 8438, "s to": 8397, "tali": 8929, " ove": 717, ", ne": 1225, "te i": 8966, "ncen": 6381, "ntiv": 6764, " tax": 886, "expl": 4283, "xplo": 9781, "plor": 7488, "perm": 7423, "ermi": 4090, "s bl": 8278, "mont": 6135, "ont ": 7102, "nt l": 6732, "wood": 9736, "r ba": 7631, "inim": 5210, "nima": 6581, "imal": 5132, "23 r": 1704, "3 re": 1757, "3 mi": 1752, "0% d": 1454, "t ex": 8829, "xpen": 9778, "pens": 7415, "nses": 6694, "ses.": 8554, "us o": 9512, "rais": 7720, "on q": 7047, "bt m": 2821, "ty f": 9272, "y fi": 9831, "ects": 3774, "-foc": 1270, "ids ": 5036, "ds c": 3475, " esg": 423, "l go": 5546, "s, s": 8427, "bb": 2730, "rh": 7895, "yr": 9954, "mt": 6184, "51": 1886, "bc": 2731, "mg": 6073, "92": 1986, "-5": 1244, "ie ": 5043, "iop": 5247, "oph": 7133, "d n": 3248, "noi": 6633, "ois": 6955, "3 s": 1758, "0b ": 1545, "imm": 5141, "uno": 9442, "onc": 7065, "ic.": 4974, "iol": 5233, "mol": 6131, "cul": 3170, "noc": 6632, "tib": 9069, "ibo": 4952, "inh": 5206, "nhi": 6566, "hib": 4787, "ibi": 4946, "ula": 9393, "hum": 4858, "ira": 5282, "imu": 5147, "b r": 2694, "eum": 4247, "thr": 9059, " ps": 760, "ank": 2428, "izi": 5412, "isa": 5305, "nki": 6604, "b p": 2693, "opi": 7135, "pic": 7456, "imb": 5135, "mbr": 6035, "b c": 2680, "lym": 5929, "mph": 6153, "leu": 5710, "lex": 5713, "acu": 2185, "cut": 3182, " my": 659, "uli": 9399, "ape": 2463, "peu": 7429, "lip": 5759, "ipt": 5275, "oge": 6929, "pat": 7384, " cy": 347, "dry": 3470, "rga": 7881, "rtf": 8147, "scu": 8497, " ju": 577, "pel": 7410, "e 9": 3546, "bis": 2764, "eci": 3754, "tip": 9099, "ipl": 5264, "lom": 5824, "hre": 4846, "1 s": 1565, "uta": 9542, "evo": 4262, "dop": 3449, "se.": 8522, " ir": 562, "rel": 7843, "ssa": 8692, "chu": 3012, "tts": 9236, "li ": 5723, "i l": 4888, "bes": 2744, "atm": 2614, "en-": 3952, "n-c": 6323, "020": 1519, "20 ": 1661, "3b ": 1789, "ngr": 6556, "h b": 4706, "sim": 8604, "tol": 9132, "squ": 8679, "ege": 3856, "ofi": 6922, "med": 6050, "ppr": 7534, "itu": 5379, "tut": 9252, "ed.": 3806, "l n": 5563, " 3.": 123, "$14": 1017, "14.": 1611, "$7.": 1046, "8b ": 1972, "$13": 1016, ".7b": 1408, "$8.": 1048, ".9b": 1417, " 4%": 131, "2.4": 1655, " 1%": 74, "s 6": 8250, "8.5": 1959, "a b": 2064, "$12": 1015, "12.": 1605, "2.3": 1654, "b u": 2697, "9b ": 2001, "2.2": 1653, "e y": 3669, "d 3": 3201, "b n": 2691, "2.5": 1656, "; 2": 2022, "hes": 4784, "+ e": 1199, "ns;": 6688, "sg ": 8564, "n v": 6314, "ghe": 4590, "biop": 2761, "ioph": 5248, "opha": 7134, "ny h": 6805, "ed n": 3796, "d no": 3251, "nois": 6634, "sa f": 8459, "t la": 8842, "tori": 9150, "yse ": 9958, "gy f": 4685, "s im": 8331, " imm": 543, "immu": 5142, "muno": 6192, " onc": 701, "onco": 7067, "ncol": 6396, "etic": 4229, " vir": 959, "rolo": 8041, "are.": 2514, "e. a": 3687, "0+ c": 1475, "ic. ": 4975, "biol": 2759, "iolo": 5234, "ogic": 6932, "smal": 8632, "mall": 6002, "ll m": 5781, "l mo": 5562, " mol": 650, "mole": 6132, "olec": 6976, "lecu": 5686, "ecul": 3776, "ntib": 6759, "tibo": 9070, "ibod": 4953, " kin": 584, " inh": 551, "inhi": 5207, "nhib": 6567, "hibi": 4788, "ibit": 4947, "bito": 2767, "ns i": 6672, "nomo": 6639, "dula": 3497, "ulat": 9395, "lato": 5636, " hum": 529, " ada": 193, "mab ": 5989, "tis ": 9103, "is p": 5304, "atic": 2606, "spon": 8673, "dise": 3413, "isea": 5311, "seas": 8528, "asis": 2572, " ris": 800, "anki": 2430, "ue p": 9354, "itin": 5366, " der": 363, "rmat": 7984, "utin": 9552, "ic l": 4967, "e ce": 3568, "te m": 8968, "ia c": 4908, "hera": 4780, "erap": 4062, "rape": 7734, "apeu": 2464, "peut": 7430, "aine": 2276, "ntio": 6762, "pati": 7387, "esta": 4195, "s cy": 8291, " cyc": 349, "orin": 7186, "ry e": 8204, "rgan": 7882, " por": 751, "ortf": 7215, "rtfo": 8148, "tfol": 9024, "foli": 4388, "olio": 6982, "lio ": 5757, "ipel": 5263, "peli": 7411, "0+ p": 1478, "ms i": 6174, "peci": 7404, "ecif": 3756, "iple": 5265, "ous ": 7284, "se. ": 8523, "orms": 7199, " cri": 341, "r ge": 7649, "gene": 4569, "ene ": 3968, " edi": 398, " ire": 563, "irel": 5289, "rela": 7845, "elan": 3896, "nd s": 6412, "assa": 2576, "sach": 8465, "sett": 8558, "ns e": 6668, " tre": 913, "eatm": 3736, "atme": 2615, "s ag": 8262, "2020": 1677, "020 ": 1520, "ct m": 3149, "es w": 4157, "s wh": 8413, "rs g": 8102, " pat": 726, "atie": 2607, "tien": 9078, "ntec": 6750, "bios": 2762, "ecia": 3755, "ialt": 4932, "y br": 9816, "rist": 7941, "isto": 5339, " squ": 865, "gen ": 4567, "en r": 3950, "egen": 3857, "n no": 6275, " nov": 678, "arti": 2543, "ogen": 6930, "us g": 9507, "t me": 8848, " med": 635, "medi": 6052, "dica": 3397, "icar": 4981, " cov": 338, "appr": 2479, "ppro": 7535, "rova": 8068, "oval": 7293, "ls a": 5856, "nsti": 6710, "stit": 8744, "titu": 9109, "itut": 5381, "tuti": 9253, "ted.": 8981, "ed. ": 3807, ".3b ": 1386, "al n": 2314, "l ne": 5564, "s up": 8401, " $14": 9, ".4b ": 1391, " $7.": 30, ".8b ": 1414, " $13": 8, "ce 1": 2934, " $8.": 32, " 4% ": 132, "s 60": 8251, "0% $": 1450, ".7b ": 1409, "% as": 1058, "emer": 3928, "ergi": 4077, "0% o": 1461, "r 10": 7623, "10%.": 1588, "y gr": 9835, ".5% ": 1397, "lar ": 5626, "ar e": 2495, " $12": 7, "b up": 2698, "re g": 7794, "%. f": 1108, "et e": 4207, "s $4": 8228, ".9b ": 1418, "s $3": 8227, "$3.2": 1031, "24 g": 1716, "p $2": 7334, "s $5": 8229, "t $5": 8799, "b ne": 2692, " 2.5": 102, "; 20": 2023, "4 gu": 1802, "guid": 4674, "uida": 9375, "idan": 5020, "danc": 3310, "ches": 3000, "hes ": 4785, "ed $": 3782, " pea": 729, "bine": 2757, "ined": 5185, "rong": 8046, "ong ": 7079, "pate": 7385, "aten": 2598, "t po": 8860, "o 20": 6815, "0+ e": 1476, "ns; ": 6689, "esg ": 4177, "sg f": 8565, "ves.": 9627, "e im": 3604, "gy d": 4683, "domi": 3444, "omin": 7012, "on v": 7052, "n vi": 6315, "ia d": 4909, "d gr": 3233, " ari": 233, "t st": 8870, " 50+": 148, " yea": 987, "ears": 3725, "-a": 1245, "hm": 4813, "hs": 4849, "(b": 1132, "nx": 6801, "48": 1834, "56": 1892, ") b": 1159, "liz": 5772, "zin": 9989, "te-": 8973, "ngl": 6553, "le-": 5676, "-ce": 1252, "i m": 4889, "ecl": 3759, "gag": 4530, "lam": 5618, "amm": 2383, "mma": 6113, "19 ": 1630, "-on": 1294, "adc": 2194, "oug": 7273, "ugh": 9371, "ut ": 9541, "doc": 3439, "alg": 2339, "lgo": 5720, "thm": 9055, "hms": 4814, "nth": 6756, "hs ": 4850, " (b": 45, "roy": 8074, "ts)": 9215, "r (": 7621, "nfe": 6499, "fec": 4318, "acr": 2177, "esp": 4186, "nie": 6577, "-de": 1260, "scl": 8490, "osu": 7244, "adi": 2203, "upf": 9457, "pfr": 7436, "s-b": 8429, "eds": 3819, "80%": 1962, "022": 1523, "2 $": 1637, " du": 383, "due": 3494, "oca": 6877, "non": 6641, "jun": 5434, "24.": 1722, "4. ": 1814, "-cl": 1253, "p p": 7349, "elle": 3910, "lera": 5700, "era ": 4059, ") bi": 1160, "iali": 4930, "aliz": 2345, "lizi": 5775, "izin": 5413, "zing": 9990, "g an": 4447, " van": 950, "anco": 2411, "a he": 2084, "g st": 4496, "ingl": 5202, "ngle": 6554, "enin": 3978, "ai m": 2262, "i ma": 4890, "ompu": 7024, "mput": 6164, "e th": 3655, "ch f": 2983, "h fi": 4714, "rms.": 7995, "n en": 6240, "n us": 6313, "rm c": 7975, "s we": 8412, "udes": 9341, "prec": 7542, "recl": 7819, "ecli": 3760, "andi": 2416, "date": 3319, "gy m": 4688, "y me": 9847, "meta": 6069, "olic": 6979, "lic ": 5730, "c di": 2847, "gage": 4531, "ager": 2242, "ry d": 8203, "sin ": 8606, "or h": 7157, "r he": 7653, "eart": 3726, "d li": 3241, "shes": 8576, "s hi": 8327, "thro": 9060, "hrou": 4848, "roug": 8064, "ough": 7274, " sco": 826, "g al": 4446, " alg": 212, "algo": 2340, "lgor": 5721, "rith": 7943, "ithm": 5361, "thms": 9056, "hms ": 4815, "ms r": 6178, "ce d": 2939, "onth": 7105, "lest": 5708, "esto": 4199, "ne r": 6453, " roy": 810, "roya": 8075, "alti": 2363, "ltie": 5885, "es) ": 4159, "gy t": 4691, "er (": 4031, "infe": 5190, "fect": 4319, "hers": 4783, " acr": 190, "acro": 2178, "us r": 9514, "resp": 7868, "mune": 6190, "ncer": 6382, "pani": 7374, "anie": 2425, "nies": 6578, "ch r": 2986, "iscl": 5307, "sclo": 8491, "osur": 7245, "ist ": 5335, "e. c": 3688, "esea": 4173, "sear": 8527, "earc": 3723, "arch": 2505, "rch ": 7767, "h co": 4709, "n ag": 6214, " upf": 933, "upfr": 9458, "pfro": 7437, "ly d": 5920, "eal ": 3712, "nera": 6473, "ed h": 3792, "undr": 9432, "eds ": 3820, "ds m": 3479, "s 5%": 8248, "hy n": 4867, " 80%": 172, "80% ": 1963, "0% i": 1458, "% in": 1073, "d po": 3258, "id p": 5014, "d pe": 3256, "2022": 1679, "022 ": 1524, "22 $": 1693, " due": 384, "due ": 3495, "e be": 3561, "ocat": 6879, "c me": 2857, "&d e": 1119, "gins": 4607, "ns h": 6671, " non": 675, "non-": 6642, " jun": 578, "june": 5435, "024.": 1532, "24. ": 1723, "d di": 3221, "ind ": 5179, "nd f": 6408, "l st": 5581, "emph": 3936, "mpha": 6154, "e no": 3622, "hann": 4746, "nnel": 6620, " ip ": 560, "200+": 1669, "o)": 6845, "nr": 6656, "b-": 2705, "nz": 6809, "ln": 5807, "dt": 3486, "kr": 5502, "sb": 8483, "g&": 4506, "&a": 1114, "eon": 4007, "o) ": 6846, "al-": 2323, "api": 2469, "pid": 7457, "bul": 2825, "llo": 5797, "osa": 7226, "syn": 8791, "ynd": 9939, " oh": 694, "ohi": 6943, "hio": 4800, "o u": 6844, "h d": 4710, "oms": 7025, "rph": 8078, "gna": 4626, "orr": 7206, " dy": 385, " rm": 802, "mag": 5993, "apy": 2484, "-ac": 1246, "das": 3316, "enz": 4002, "hel": 4774, "ski": 8625, "pul": 7584, "amo": 2384, "b m": 2690, "rda": 7778, "1m ": 1635, "h l": 4719, "g&a": 4507, "ibl": 4948, "h m": 4720, "20m": 1687, "$40": 1036, "t-i": 8894, "fas": 4307, "t-t": 8897, "k s": 5456, "pgr": 7439, "cal-": 2889, "al-s": 2324, "l-st": 5596, "e bi": 3562, "y bi": 9815, "or g": 7156, "rapi": 7736, "apie": 2471, "pies": 7460, " syn": 881, "ia r": 4917, "reti": 7873, "diso": 3414, "isor": 5327, "sord": 8653, " cle": 321, "a fa": 2080, "h de": 4711, "clea": 3057, "room": 8051, "an d": 2394, "n dr": 6236, "igna": 5088, "gnat": 4627, "t gr": 8835, "neti": 6484, "kera": 5482, "trop": 9181, "phic": 7446, "edia": 3816, "diat": 3395, "rapy": 7737, "apy ": 2485, "se e": 8510, "athe": 2604, "l de": 5535, "l cl": 5532, "se r": 8516, "l ve": 5588, "a br": 2065, "ugh ": 9372, "r sy": 7682, "cate": 2918, "te f": 8964, "nd c": 6406, "y pe": 9857, "ros ": 8056, "nt b": 6724, "capi": 2905, "apit": 2472, "ndat": 6418, "arin": 2526, "in p": 5159, "soli": 8646, "olid": 6980, "arda": 2508, "da f": 3305, "on-c": 7058, "ior ": 5250, "hy 1": 4864, "ible": 4949, "odel": 6899, "20m ": 1688, "m po": 5964, "offe": 6919, " $40": 22, "m 20": 5938, "g fe": 4464, "e ra": 3638, "eeds": 3828, "l fi": 5542, "st-i": 8720, "ss c": 8687, "ve t": 9603, " sca": 823, "cala": 2890, "alab": 2329, "ty o": 9279, "an e": 2395, " fas": 444, "fast": 4308, "ty b": 9268, "h se": 4729, "r ne": 7666, "itiv": 5369, "ve e": 9597, "upgr": 9460, "pgra": 7440, "nb": 6370, "amb": 2375, "bev": 2746, "lo ": 5811, "usc": 9521, "lde": 5651, "tak": 8924, "gua": 4671, " ur": 936, "dwe": 3512, "oro": 7202, "nks": 6606, "psi": 7570, "coc": 3079, "a-c": 2118, " sn": 852, "nac": 6348, "ks.": 5506, "gis": 4610, "tau": 8946, "aur": 2632, "3 e": 1749, "rew": 7876, "oot": 7124, "+ l": 1200, "onv": 7108, "n-p": 6326, "-pr": 1300, "gri": 4656, "icu": 5009, "ltu": 5890, "ken": 5479, "rup": 8184, "% n": 1077, "usd": 9522, "sd ": 8499, "70%": 1936, "tam": 8932, "m 1": 5936, "e 7": 3544, ".4 ": 1388, "adr": 2214, "dr ": 3460, "t 3": 8804, "h 5": 4703, " 5.": 144, "18%": 1627, "o g": 6827, "nsf": 6695, "sfo": 8561, "1 r": 1564, ".7 ": 1407, "c p": 2860, "ian ": 4935, " bev": 268, "beve": 2747, "il s": 5099, "ehol": 3874, "olde": 6973, "lder": 5652, "stak": 8728, "take": 8925, "eer ": 3837, "s br": 8280, "rgen": 7885, "ntin": 6761, "an r": 2400, "ips.": 5274, "ctic": 3155, "ia b": 4907, "a so": 2104, "nks ": 6607, " gua": 505, "guar": 4672, "ca p": 2878, "se s": 8517, " coc": 329, "a-co": 2119, "ola ": 6968, "r te": 7684, "y dr": 9825, " log": 615, "ogis": 6934, "gist": 4611, "cs r": 3143, "stau": 8733, "taur": 8947, "aura": 2633, "uran": 9471, "supe": 8777, "23 e": 1700, "nes.": 6479, "ai i": 2261, "g te": 4500, "foot": 4391, "o re": 6840, "reci": 7818, "t pe": 8858, "co c": 3073, "o co": 6820, "conv": 3100, "onve": 7109, "hote": 4838, "otel": 7257, "tels": 8993, "s ex": 8309, "orte": 7214, "y ho": 9838, "loca": 5818, "ocal": 6878, "farm": 4306, "agri": 2254, "gric": 4657, "ricu": 7908, "icul": 5010, "cult": 3172, "ultu": 9404, "ltur": 5891, "en b": 3944, "l pe": 5570, " pet": 734, "petr": 7428, "l br": 5526, "wers": 9707, "berg": 2742, "rm l": 7977, "g pe": 4486, "a ex": 2078, "n ri": 6292, " rig": 799, "righ": 7921, " eve": 432, "pons": 7507, "onso": 7098, "wn s": 9727, "e 15": 3532, " usd": 942, "usd ": 9523, "d be": 3210, " 70%": 165, "70% ": 1937, "0% p": 1462, "% pr": 1084, " 1.5": 77, "lite": 5766, "0% n": 1460, "% ne": 1078, ".4 b": 1389, "e ad": 3549, " 18%": 94, "18% ": 1628, "s 1.": 8236, "025 ": 1534, " soc": 854, "r ac": 7628, "ansf": 2441, "nsfo": 6696, "sfor": 8562, "orma": 7197, "ic p": 4969, "c re": 2863, "ry b": 8201, "res.": 7864, "dg": 3384, "08": 1543, "d,": 3286, "b+": 2701, "(e": 1136, ".g": 1420, "pd": 7393, "1,": 1568, "dn": 3435, "k.": 5462, "z ": 9970, "4m": 1838, "3m": 1790, "pb": 7390, "tz": 9287, "g)": 4509, "ji": 5422, "3-": 1765, "nw": 6798, "np": 6655, "yw": 9969, "etp": 4232, "tpl": 9158, "g h": 4469, "h g": 4716, "sm ": 8630, "d, ": 3287, "ipo": 5268, "b+ ": 2702, "cco": 2927, "mmo": 6119, " (e": 49, "tir": 9100, ") g": 1165, "dyn": 3518, "yna": 9938, "r m": 7660, "urs": 9495, "g w": 4505, "s).": 8422, "plu": 7490, "rif": 7918, "vil": 9641, "b f": 2685, "ebr": 3743, "(e.": 1137, "e.g": 3693, ".g.": 1421, "lto": 5887, "lib": 5728, "i-p": 4901, "rso": 8136, "dge": 3385, "g n": 4481, ": p": 2016, "rau": 7746, "ud-": 9337, "d-b": 3289, "nfr": 6504, "irt": 5300, "tua": 9238, "o 1": 6813, "don": 3445, "dne": 3436, "tok": 9131, "k. ": 5463, "0m+": 1554, "nni": 6622, "rip": 7935, "pal": 7369, "ge.": 4559, "ppi": 7526, "ng)": 6532, "g) ": 4510, ") e": 1163, "asa": 2558, " 24": 114, "t-g": 8893, "egu": 3866, "gul": 4676, "4.2": 1815, "le.": 5677, "nwa": 6799, "isk": 5322, "sks": 8626, "10m": 1597, "ty a": 9267, "vel ": 9610, "ketp": 5487, "etpl": 4233, "tpla": 9159, "ng h": 6519, "host": 4836, "ts w": 9214, "s wi": 8414, "ests": 4201, "shor": 8582, "peri": 7422, "an f": 2396, "ncis": 6392, "trad": 9163, "aded": 2199, " ipo": 561, "ipo ": 5269, " arr": 235, "mula": 6187, "rm a": 7974, " ena": 409, "enab": 3954, "st r": 8714, "t ac": 8807, "acco": 2154, "ns (": 6660, "s (e": 8233, "tire": 9101, "re h": 7795, "e ho": 3602, " apa": 227, "ue s": 9355, "tree": 9171, "tant": 8936, "amic": 2379, "c pr": 2861, "pric": 7547, "icin": 4992, "lend": 5696, "r ma": 7661, "nt h": 6730, "t to": 8875, "ols.": 6991, "s (c": 8232, "ng w": 6531, "e to": 3656, "s). ": 8423, " tie": 901, " plu": 748, "lus ": 5907, "rifi": 7919, "uali": 9295, "vill": 9642, "las ": 5629, "conc": 3094, "rge ": 7884, "ge s": 4558, "el c": 3890, "olle": 6985, " (e.": 50, "(e.g": 1138, "e.g.": 3694, "g. p": 4520, "ris ": 7938, "were": 9706, "ch p": 2985, "erso": 4113, "rson": 8137, "sona": 8650, "nali": 6356, "liza": 5773, "g to": 4501, "y ba": 9814, "ng n": 6523, ": pr": 2017, " tru": 915, "frau": 4407, "raud": 7747, "aud ": 2627, " det": 365, "st p": 8713, "cs d": 3138, "asti": 2582, "oud-": 7272, "ud-b": 9338, "d-ba": 3290, "infr": 5193, "nfra": 6505, "fras": 4406, "rast": 7741, "uctu": 9329, "st i": 8711, "virt": 9649, "irtu": 5301, "rtua": 8168, "tual": 9239, "n st": 6301, "ees.": 3842, "l of": 5566, "s du": 8298, "blin": 2776, "lin ": 5752, "lond": 5826, "ondo": 7070, "ndon": 6431, "don ": 3446, "n si": 6299, "e sy": 3651, "y to": 9875, " tok": 905, "wned": 9731, "d ho": 3235, "ls r": 5869, " rel": 789, "reli": 7847, "lies": 5739, "s 15": 8239, " 150": 90, "150m": 1620, "0m+ ": 1555, " use": 943, "uals": 9297, "ls p": 5868, "nals": 6357, "trip": 9177, "pal ": 7370, "insu": 5223, "nsur": 6715, "sura": 8780, "age.": 2238, "ge. ": 4560, "keti": 5486, "flue": 4383, "luen": 5900, "ppin": 7527, "ping": 7465, " rai": 778, "ar r": 2498, "pedi": 7407, "en p": 3949, "t ag": 8810, " ter": 893, "ms s": 6179, "regu": 7836, "egul": 3867, "gula": 4677, "r go": 7650, "es 4": 4132, "t se": 8867, ".2% ": 1377, "stab": 8725, "mea ": 6049, "). s": 1190, "s: p": 8452, "rofi": 8027, "ofit": 6923, "fita": 4367, "itab": 5347, "d ne": 3250, "b 20": 2678, "th d": 9035, "risk": 7940, "isks": 5324, " mis": 646, "n be": 6222, " bel": 264, "r)": 7692, "tg": 9026, "04": 1538, "ez": 4293, "zz": 9997, "lf": 5716, "f-": 4296, "jp": 5430, "sw": 8786, "r) ": 7693, "rtg": 8149, "tga": 9027, " mr": 654, "eit": 3883, "3 p": 1755, ": f": 2010, "fam": 4303, "idw": 5040, "idg": 5030, "elf": 3903, "lf-": 5718, "ked": 5477, "ae ": 2222, " cm": 324, "mbs": 6036, "e-b": 3677, "exe": 4277, "tiz": 9113, "sua": 8764, "uan": 9298, "erw": 4122, "k a": 5439, "edg": 3813, " jp": 575, "jpm": 5431, "pmo": 7496, "org": 7179, "wel": 9702, ". k": 1347, " gi": 489, "rty": 8170, " sw": 878, "aps": 2481, "4 m": 1803, "n 9": 6210, "% f": 1068, "60 ": 1912, " 98": 180, "98%": 1995, "5%.": 1865, "k v": 5458, "0 a": 1434, "o $": 6811, "4 d": 1798, "oat": 6867, "cru": 3130, "tta": 9229, " 99": 182, "99%": 1998, " mor": 652, "mort": 6138, "ortg": 7216, "rtga": 8150, "tgag": 9028, "ge r": 4557, "l es": 5539, "t tr": 8876, "reit": 7842, "eit ": 3884, "ce l": 2945, "endi": 3964, "g. f": 4519, "l he": 5549, "d un": 3277, "ncia": 6389, " rei": 788, "fami": 4304, "amil": 2381, "mily": 6094, "de o": 3338, "once": 7066, "entr": 3995, "rthe": 8153, "thea": 9049, "heas": 4767, "midw": 6089, "idwe": 5041, "dwes": 3513, "t so": 8869, "uthe": 9547, "ridg": 7912, "idge": 5031, "dge ": 3386, "ge l": 4554, "icip": 4993, "cipa": 3029, "eres": 4072, "r po": 7672, "self": 8539, "elf-": 3904, "rtie": 8156, "acke": 2168, "ked ": 5478, "y lo": 9844, "anni": 2434, "e fr": 3589, "ms c": 6170, "tera": 9005, "lize": 5774, "zed ": 9978, "e-ba": 3678, "gs i": 4666, "oan ": 6861, "y ex": 9829, "derw": 3373, "isk ": 5323, "moni": 6134, "onit": 7084, "nito": 6591, "e da": 3574, "edge": 3814, "ge d": 4552, "ivat": 5391, "radi": 7710, "adin": 2205, "g sy": 4498, "e of": 3624, "ia t": 4919, "flor": 4380, "lori": 5834, "orid": 7183, "rida": 7911, "ida ": 5019, "te d": 8962, "espo": 4187, "dent": 3360, " ban": 258, "bank": 2722, "anks": 2431, " jpm": 576, "jpmo": 5432, "pmor": 7497, "morg": 6137, "orga": 7180, " wel": 974, "well": 9703, "repo": 7858, "ank ": 2429, "s: s": 8453, "erty": 4117, "rty ": 8171, " sim": 845, "or l": 7159, "us p": 9513, "t ra": 8863, " rat": 780, "nt $": 6720, "n cl": 6229, "5% f": 1853, "e $4": 3524, " 98%": 181, "98% ": 1996, "xpos": 9784, "posu": 7515, "% no": 1079, "ts 5": 9194, " 5%.": 143, "5%. ": 1866, "e pe": 3630, "2.5 ": 1657, "se l": 8513, " bon": 279, "ds s": 3481, "sist": 8614, "tabi": 8916, "0% f": 1456, "ues ": 9364, " 99%": 183, "99% ": 1999, "l lo": 5557, "9m": 2002, "tei": 8987, "cci": 2925, "tid": 9075, "d v": 3279, "vas": 9588, "zes": 9983, " nv": 681, "3 a": 1744, "ue-": 9356, "e-s": 3684, "3m ": 1791, "120": 1606, "&a ": 1115, "9m ": 2003, "3 f": 1750, "run": 8182, "unw": 9447, "o pr": 6838, "otei": 7256, "tein": 8988, "ein ": 3880, "vacc": 9576, "acci": 2153, "ccin": 2926, "cine": 3026, "tide": 9076, "ides": 5029, "crea": 3124, "eati": 3735, "dels": 3353, "n ra": 6290, "pid ": 7458, "ndis": 6427, "l ad": 5521, "ed v": 3803, "izes": 5411, "zes ": 9984, "ai c": 2259, "ster": 8739, " nvi": 682, "nvid": 6796, "vidi": 9638, "a 20": 2057, "m mi": 5959, "aste": 2581, "as p": 2556, "23 a": 1697, "del ": 3351, " tem": 891, "dici": 3398, "ce (": 2933, "hari": 4751, "s r&": 8375, "s 80": 8255, "0% m": 1459, "%. g": 1109, "5% i": 1855, "al 5": 2302, "g&a ": 4508, "23 f": 1701, " run": 812, "runw": 8183, "unwa": 9448, "nway": 6800, "way ": 9694, "nd p": 6411, "d pl": 3257, "man ": 6004, "n ac": 6212, "adit": 2206, "hc": 4759, "h.": 4734, "g;": 4525, " &": 35, "& ": 1113, "bd": 2732, "dh": 3387, "36": 1784, "%)": 1100, "0k": 1548, ") h": 1166, "thc": 9046, "hca": 4760, " nu": 679, "nut": 6789, "oas": 6865, "poi": 7500, "tig": 9083, "dra": 3461, "rmu": 7996, "yle": 9931, "p d": 7342, "dex": 3382, "nex": 6494, "-ge": 1274, "ch.": 2988, "h. ": 4735, ") r": 1175, "ng;": 6541, "g; ": 4526, "sie": 8594, "iem": 5048, "hys": 4877, "$1b": 1021, "g 2": 4439, " & ": 36, "egy": 3868, "d (": 3194, " 28": 117, "28%": 1733, "5%)": 1864, "uci": 9320, "st.": 8722, "017": 1514, "17 ": 1624, "rdi": 7781, "asc": 2559, "lthc": 5882, "thca": 9047, "hcar": 4761, " ali": 213, "rchi": 7769, "hite": 4809, "itec": 5355, "poin": 7501, "cula": 3171, "ular": 9394, "oral": 7169, "ncre": 6400, "le l": 5669, "ve r": 9601, "23 p": 1703, "s pl": 8366, " nex": 669, "next": 6495, "-gen": 1275, "en f": 3948, "sor ": 8652, "ch. ": 2989, "r mo": 7664, "ing;": 5200, "ng; ": 6542, "se t": 8518, " sie": 842, "siem": 8595, "ieme": 5049, "mens": 6057, " ima": 542, "imag": 5131, "magi": 5994, "plas": 7477, "last": 5631, " sig": 843, " phy": 741, "phys": 7453, "hysi": 4878, "ysic": 9962, "icia": 4990, "d su": 3271, " $1b": 12, "ng 2": 6510, "g 20": 4440, "rs j": 8105, "rs (": 8093, "s (s": 8234, "ue 2": 9348, " 28%": 118, "28% ": 1734, "ts 1": 9192, "; co": 2028, "y es": 9828, "st. ": 8723, "de m": 3337, "2017": 1673, "b ca": 2681, "ardi": 2509, "s q1": 8371, "vy": 9666, "c) ": 2870, "eav": 3739, "avy": 2649, "vy ": 9667, "fus": 4431, "hwa": 4861, "twe": 9259, "p m": 7348, "tst": 9225, "; f": 2033, "upt": 9466, "018": 1515, "rol ": 8037, "er m": 4045, " mun": 657, "nici": 6575, "ipal": 5261, "etal": 4219, "l po": 5572, "none": 6643, "y po": 9860, " rem": 790, "remo": 7851, "val ": 9579, "us n": 9511, "roge": 8029, "e do": 3577, "nant": 6362, "y 95": 9801, "s ou": 8359, "utst": 9563, "tsta": 9226, "t he": 8837, "gati": 4545, "ss a": 8686, "rupt": 8185, "estr": 4200, "alte": 2361, "2018": 1674, "n ta": 6305, "cd": 2930, "3%": 1761, "utu": 9564, " ln": 610, "erf": 4073, "adm": 2209, "dmi": 3433, "nis": 6586, "cir": 3030, "rcu": 7774, "cep": 2965, "gon": 4638, "mp ": 6147, "rro": 8090, "his": 4806, "pio": 7466, "6 m": 1905, "3% ": 1762, "g li": 4474, " liv": 609, "er d": 4038, "us h": 9508, "h pr": 4725, "rmin": 7991, "d na": 3249, "rna ": 8000, " adm": 196, "admi": 2210, "dmin": 3434, "inis": 5212, "nist": 6587, " cir": 317, "circ": 3031, "cept": 2966, "impr": 5146, "mpro": 6162, "rove": 8069, "oved": 7296, "id c": 5013, "l mi": 5561, "e 10": 3531, "aphi": 2467, "n na": 6273, "n. d": 6332, " pio": 744, "pion": 7467, "ione": 5244, "onee": 7074, "6 mi": 1906, "24 a": 1713, "x-": 9756, "(g": 1140, "h)": 4732, "q4": 7604, "x p": 9752, "tti": 9232, " (g": 52, "ego": 3863, "umo": 9420, "lun": 5905, "(ac": 1131, "-re": 1302, "bur": 2826, " q4": 769, "q4 ": 7605, " rad": 777, "ry n": 8210, "mitt": 6105, "ttin": 9233, " dir": 372, "cer ": 2968, "adia": 2204, "23 s": 1705, " die": 369, " tum": 918, "tumo": 9244, "umor": 9421, "ists": 5341, "t no": 8853, "itte": 5378, "nium": 6595, " (ac": 44, ") re": 1176, "o di": 6823, "e na": 3620, "or m": 7160, "ls (": 5854, "g ag": 4444, "o se": 6842, "h $2": 4699, "ised": 5312, "es 7": 4134, "s 70": 8253, " bur": 290, "le g": 5667, "ck p": 3039, "e. r": 3691, " q4 ": 770, "cn": 3070, "'s": 1122, "cp": 3116, "zh": 9985, "(v": 1155, "2,": 1648, "71": 1939, "'s ": 1123, "w c": 9670, "gni": 4628, "eim": 3878, "opl": 7136, "mos": 6139, "pi ": 7455, "h o": 4723, " cn": 325, " (v": 66, "$80": 1049, "esc": 4170, "+ b": 1195, "ny f": 6804, "in f": 5155, "roto": 8062, "mine": 6097, "rgic": 7890, "de f": 3336, "re n": 7799, "nver": 6793, " top": 908, "ve s": 9602, "sele": 8538, "ve i": 9598, "path": 7386, "te h": 8965, " org": 710, "gani": 4537, "aniz": 2427, "100 ": 1592, "ke c": 5476, "n. s": 6335, " api": 228, "api ": 2470, "cata": 2917, "tale": 8928, "ns b": 6665, "3 $1": 1742, " $80": 33, "crip": 3127, "ript": 7936, "ipti": 5276, "ns 1": 6661, "ake ": 2293, "4 mi": 1804, " 300": 126, "barr": 2724, "cb": 2920, "b2": 2708, "lr": 5851, "(w": 1156, "lem": 5693, "sey": 8559, "ucl": 9322, "see": 8534, " b2": 254, "hir": 4804, "ird": 5284, "rd-": 7777, "d-p": 3291, " (w": 67, "sas": 8478, "1 f": 1561, "d 4": 3202, "-le": 1282, "erta": 4115, "s dr": 8297, "r me": 7662, "rele": 7846, "leme": 5694, "ains": 2279, " lig": 602, "oppe": 7141, "pper": 7525, "thir": 9052, "hird": 4805, "y ve": 9881, "s ti": 8396, "ta s": 8914, "tari": 8940, "wn f": 9726, "n fy": 6251, " cad": 299, "cad ": 2883, "ue c": 9350, "400 ": 1822, "d me": 3245, "l fo": 5543, "s ov": 8360, "in m": 5157, "&p": 1121, "sv": 8785, "tx": 9262, "gg": 4585, "c h": 2852, "wil": 9716, "ppa": 7522, "cid": 3017, "agl": 2247, " ut": 944, "2.0": 1651, "wir": 9719, "l-t": 5597, "-ti": 1312, "urt": 9497, "va ": 9574, "chl": 3007, "umb": 9412, "ex ": 4271, "itm": 5370, " 3%": 121, "1.4": 1578, "7m ": 1950, "pex": 7431, "r 5": 7626, "0 p": 1443, "agg": 2244, "frac": 4404, "fiel": 4352, "ld s": 5650, "ic f": 4964, "mple": 6156, "plet": 7482, "il g": 5097, "le b": 5662, "rmia": 7990, "mian": 6077, " wes": 975, "d sh": 3266, "lle ": 5788, "s ut": 8404, " uti": 945, "appa": 2477, "ota ": 7251, "in o": 5158, "er h": 4042, "ista": 5336, "sand": 8477, " wir": 980, "wire": 9720, "esel": 4174, "eal-": 3713, "al-t": 2325, "l-ti": 5598, "-tim": 1313, "ime ": 5137, "1.5 ": 1580, "esou": 4185, "tine": 9094, "s eq": 8304, "nd a": 6405, "lumb": 5902, "umbe": 9413, "me c": 6045, "mmit": 6118, "itme": 5371, "00m+": 1511, "ue e": 9351, "es 9": 4136, "p $1": 7333, "$1.4": 1009, "e 1.": 3530, "cape": 2904, "apex": 2465, "pex ": 7432, "er 5": 4034, "st-m": 8721, "mn": 6122, "kc": 5467, "rok": 8034, " om": 698, "cyb": 3187, "ybe": 9907, "blo": 2777, "ckc": 3042, "kch": 5468, "lai": 5617, "swi": 8787, "diu": 3421, "hat": 4757, "t-b": 8889, "%) ": 1101, "l 3": 5517, "0.2": 1487, "i g": 4885, "l gr": 5547, " ber": 266, "rein": 7841, "eins": 3881, "brok": 2811, "roke": 8035, " thr": 899, "arie": 2524, "sual": 8765, "ce m": 2946, "da a": 3304, "s wo": 8415, " cyb": 348, "cybe": 3188, "yber": 9908, "ce f": 2941, "e cr": 3572, "lima": 5749, "ls 2": 5855, "g da": 4456, " blo": 275, "bloc": 2778, "ockc": 6889, "ckch": 3043, "kcha": 5469, " swi": 879, "oker": 6962, "dium": 3422, "0 co": 1438, "ta p": 8913, "e ha": 3599, "an i": 2397, "t-ba": 8890, "vate": 9590, "ty 2": 9266, "5% m": 1856, "al 3": 2301, "pe 1": 7396, "a 10": 2054, "oy d": 7321, "incr": 5177, "2.5b": 1658, "tio ": 9097, "t-to": 8898, "5% s": 1861, "% sh": 1090, "t ba": 8816, "bala": 2717, "s es": 8305, "eha": 3870, "utp": 9559, "ptu": 7579, "aye": 2661, "lc ": 5645, "urg": 9483, "rfo": 7878, " men": 637, "tanc": 8934, "s 25": 8242, "esid": 4180, "side": 8592, "outp": 7289, "lans": 5623, "th r": 9041, "ecor": 3764, "cord": 3105, "l ce": 5530, "ayer": 2662, "aid ": 2268, "$2.5": 1025, "lay ": 5641, "onse": 7097, "surg": 8782, "urge": 9484, ".3 b": 1384, "n ad": 6213, "perf": 7421, "erfo": 4074, "rfor": 7879, "manc": 6006, "ce v": 2951, "e vo": 3665, "tile": 9085, "-w": 1318, "41": 1823, "urb": 9472, "rba": 7756, "g (": 4437, "i s": 4894, "eor": 4008, "gia": 4595, "~$1": 9999, "typ": 9286, "45 ": 1828, " urb": 937, "urba": 9473, "rban": 7757, "ban ": 2720, "ng (": 6508, "sia.": 8587, "uton": 9557, "mous": 6145, "geor": 4573, "eorg": 4009, "orgi": 7181, "s ur": 8402, "oney": 7077, " bet": 267, "e un": 3659, "me p": 6047, " ~$1": 999, "w s": 9674, "alo": 2356, " cd": 307, "mbu": 6037, "4m ": 1839, "m v": 5974, "uat": 9303, "019 ": 1517, "nchi": 6387, "chis": 3006, "hise": 4807, "t us": 8878, "n pi": 6284, " alt": 215, "este": 4196, "ion)": 5238, "t. p": 8906, "urse": 9496, "seme": 8543, "cker": 3045, "ker ": 5481, "i e": 4883, "nif": 6579, "ss-": 8691, "alm": 2354, "lma": 5804, "kro": 5503, "nfo": 6502, "hen": 4777, "ba ": 2712, "saa": 8461, "aas": 2129, "b g": 2686, "urr": 9493, " 85": 173, "85%": 1968, "fint": 4359, "nkin": 6605, "erch": 4066, "depl": 3366, "impl": 5145, "visa": 9651, "sa m": 8460, "mast": 6018, "terc": 9006, "l ba": 5525, "5000": 1882, "walm": 9684, "alma": 2355, "lmar": 5805, "info": 5192, "oy b": 7320, " saa": 815, "saas": 8462, "aas ": 2130, "recu": 7822, "curr": 3176, "urri": 9494, "rrin": 8089, " 85%": 174, "85% ": 1969, "5% n": 1857, " $45": 23, "m di": 5946, "rice": 7905, "rsec": 8130, "ccu": 2929, "boa": 2784, "ift": 5072, "ach ": 2159, "re b": 7789, "ion-": 5240, "boar": 2785, "oard": 6864, "me d": 6046, "labl": 5609, "ud i": 9334, "util": 9551, "s ev": 8308, "xx": 9789, "xo": 9771, "e k": 3607, "exx": 4288, "xxo": 9790, "xon": 9772, "nmo": 6614, "tee": 8982, "k o": 5452, "0b+": 1546, "th.": 9043, "dvi": 3507, "ia f": 4911, "nfor": 6503, "ing)": 5196, " edg": 397, " dro": 381, "ai s": 2264, " ca ": 297, "y ai": 9806, "exxo": 4289, "xxon": 9791, "xonm": 9773, "onmo": 7089, "nmob": 6615, "bil ": 2752, "ms m": 6176, "stee": 8737, "teel": 8983, "eel ": 3831, "sort": 8656, "orti": 7218, "0b+ ": 1547, "b de": 2683, "il c": 5096, "5% u": 1862, "s em": 8302, "g ad": 4443, "advi": 2220, "dvis": 3508, "viso": 9653, "sory": 8657, "fc": 4309, "(h": 1141, "s/": 8443, "66": 1920, "rco": 7773, " (h": 53, "ngh": 6549, "gha": 4589, "tc ": 8951, "t (": 8800, "yo ": 9942, "8m ": 1974, "1.3": 1577, "450": 1831, "nav": 6369, "iga": 5075, "erco": 4068, " shi": 839, " ult": 927, "ultr": 9403, "l pl": 5571, " cop": 334, "copp": 3103, "th m": 9039, "hang": 4745, "ngha": 6550, "n sc": 6296, "r fi": 7646, "e gl": 3595, "een ": 3835, "$1.3": 1008, "0m c": 1551, "20 m": 1662, " nav": 664, "igat": 5076, "e 30": 3539, "sib": 8588, "oct": 6891, "k g": 5445, "ippi": 5271, "mble": 6034, "5,": 1867, "r,": 7694, "3,": 1764, "68": 1921, "ns,": 6684, ", i": 1219, "r, ": 7695, "e),": 3672, "s),": 8420, "itc": 5350, ", u": 1233, "nd i": 6409, "ns, ": 6685, "epor": 4018, ", in": 1220, "s aw": 8273, "d. p": 3296, "e), ": 3673, "), a": 1181, "s), ": 8421, "t $3": 8798, "), s": 1184, "uced": 9317, "(2": 1127, "nar": 6363, " et": 425, "stu": 8761, "tud": 9240, "f c": 4295, " (2": 41, "(20": 1128, "en s": 3951, "or i": 7158, "fire": 4361, "s et": 8306, " eth": 426, " stu": 871, "stud": 8762, "tudi": 9241, "unts": 9446, " 3% ": 122, " (20": 42, "(202": 1129, "open": 7131, "ds p": 3480, " oc": 687, "occ": 6880, "c o": 2859, "ffo": 4338, "ayo": 2665, "you": 9945, " occ": 688, "demo": 3357, "oods": 7114, "fits": 4368, "sola": 8645, "easi": 3730, "yout": 9946, "out ": 7287, "lver": 5915, "cy r": 3186, "y ra": 9863, "s e-": 8300, "esis": 4183, "(1": 1126, "rla": 7963, "nke": 6603, "e-l": 3682, "cta": 3151, "eda": 3810, "za ": 9972, " (1": 40, "e 8": 3545, "erla": 4085, "rlan": 7964, "ads ": 2216, "d as": 3207, "en a": 3943, "emot": 3934, "ecta": 3769, "ond ": 7069, " rf": 796, " 32": 127, "d q": 3260, "ecis": 3757, "cisi": 3034, "less": 5707, "n bo": 6223, "puti": 7589, "g me": 4478, "rock": 8020, "ar t": 2500, "l ch": 5531, "n so": 6300, ".,": 1362, "ur ": 9468, "xch": 9761, "g.,": 4521, "., ": 1363, "1000": 1595, "e oi": 3625, "ns w": 6683, "n fe": 6246, "n cr": 6231, " sat": 820, "sate": 8480, "atel": 2597, "llit": 5796, "uels": 9359, "ethe": 4227, "exch": 4275, "xcha": 9762, "ar i": 2496, "ncor": 6398, "l le": 5555, ".g.,": 1422, "g., ": 4522, "rui": 8180, "fs ": 4417, "6m ": 1925, "a po": 2098, "iliz": 5113, " gri": 502, "500+": 1881, "ccou": 2928, ".2m ": 1381, "mw ": 6195, "10-": 1589, "se-l": 8521, "e-li": 3683, "allo": 2352, "r pl": 7671, "h ma": 4721, " mag": 625, "re l": 7797, "s 90": 8257, " 10-": 81, "bp": 2799, " bp": 282, "ben": 2738, "nef": 6463, "lds": 5655, " ben": 265, "bene": 2739, "enef": 3969, "nefi": 6464, "n. t": 6336, "ll b": 5779, "re v": 7805, "yer ": 9924, "nel ": 6466, "mote": 6141, "ote ": 7254, "lds ": 5656, "t ad": 8808, " ng": 670, ": n": 2015, "uard": 9301, "rs 2": 8095, "g as": 4448, "/c": 1426, "/m": 1429, "hq": 4843, "gd": 4546, "inm": 5215, " hq": 525, "hq ": 4844, "mak": 5999, "tert": 9014, "rtai": 8143, "ainm": 2278, "inme": 5216, " hq ": 526, " tor": 909, "n sh": 6298, "ia o": 4915, "doo": 3447, "oor": 7122, "mb ": 6027, "00k": 1508, "door": 3448, "g mo": 4480, "nsm": 6701, "rvin": 8195, "hern": 4782, "erne": 4095, "rnet": 8003, "ds l": 3478, "e fl": 3587, "ansm": 2443, "nsmi": 6702, "smis": 8636, "nuc": 6781, "ern ": 4093, "grid": 4658, " nuc": 680, "nucl": 6782, "ucle": 9323, " 10 ": 79, "s ga": 8319, "quan": 7609, "uant": 9299, " \u20ac": 1000, "rud": 8176, "unds": 9433, "th f": 9037, " fam": 442, " it ": 567, "rude": 8177, "fit ": 4366, "itur": 5380, "06": 1541, "3)": 1763, "e q": 3636, "rmb": 7985, "2 t": 1644, "23)": 1707, "etes": 4224, " rmb": 803, "rmb ": 7986, " 50 ": 146, "023)": 1527, "rbi": 7758, "ube": 9305, "ic g": 4965, "r le": 7657, "th e": 9036, "gol": 4636, "ilv": 5124, " zi": 996, "eac": 3702, "oz ": 7330, " gol": 495, "gold": 4637, "old ": 6972, "r mi": 7663, "silv": 8603, "ilve": 5125, "each": 3703, "dril": 3464, "el e": 3891, "nt (": 6721, "nnes": 6621, "n-s": 6327, "uty": 9565, "fid": 4349, "uck": 9321, "ppar": 7523, "arel": 2517, "rel ": 7844, "good": 4640, " sun": 874, "g 5": 4441, "irg": 5290, "x c": 9751, "ng 5": 6511, "virg": 9647, "irgi": 5291, "capt": 2906, "aptu": 2483, "ptur": 7580, "dur": 3499, "ge a": 4549, "% sa": 1088, "hore": 4832, "3 2": 1743, "role": 8038, " exx": 437, "ruck": 8174, "perc": 7420, "% op": 1081, "-con": 1256, "59": 1895, "46": 1832, "wast": 9690, "ste ": 8735, "n th": 6307, "0%)": 1468, "rs/": 8123, "), e": 1183, "or b": 7151, "ers/": 4107, " blu": 276, "ills": 5119, "drog": 3467, "aniu": 2426, "rren": 8086, "thl": 9054, "oos": 7123, "tco": 8953, "med ": 6051, "c gr": 2851, "uber": 9306, "mbia": 6031, "80 ": 1961, "e/": 3695, "oco": 6890, "/d": 1427, "tenc": 8999, "antu": 2450, "fix": 4369, "ham": 4741, " fix": 457, "fixe": 4370, "nted": 6751, "coas": 3078, "oast": 6866, "um s": 9409, "ulf": 9398, "sala": 8471, "urgi": 9485, "gica": 4598, "dst": 3484, "lads": 5616, " bit": 272, "memb": 6055, "oin ": 6953, "unt ": 9444, "weal": 9698, " cry": 344, "ypto": 9953, "lf ": 5717, "mids": 6088, "idst": 5037, "dstr": 3485, " cru": 343, "crud": 3131, "lng": 5808, " lng": 611, "lng ": 5809, "alad": 2330, "coin": 3082}