{"ag": 1439, "gi": 4011, "il": 4609, "le": 5307, "t ": 8668, " ag": 47, "agi": 1455, "gil": 4023, "ile": 4624, "len": 5341, "ent": 3388, "nt ": 6455, "lent": 5347, "ent ": 3389, "ec": 3077, "ch": 2380, "hn": 4282, "no": 6364, "ol": 6751, "lo": 5531, "og": 6696, "ie": 4527, "s,": 8208, " te": 945, "tec": 8774, "ech": 3082, "chn": 2409, "hno": 4285, "nol": 6370, "olo": 6784, "log": 5544, "ogi": 6700, "gie": 4018, "ies": 4542, "es,": 3550, "s, ": 8209, " tec": 947, "tech": 8775, "echn": 3086, "chno": 2411, "hnol": 4286, "nolo": 6371, "olog": 6785, "logi": 5546, "ogie": 6702, "gies": 4020, "ies,": 4544, "es, ": 3551, "c.": 2259, "inc": 4709, "nc.": 6073, "c. ": 2260, " inc": 487, "inc.": 4712, "nc. ": 6074, "ov": 7170, "vi": 9601, "id": 4487, " pr": 775, "pro": 7458, "rov": 8034, "ovi": 7181, "vid": 9609, "ide": 4498, "des": 2785, " pro": 779, "prov": 7470, "rovi": 8036, "ovid": 7182, "vide": 9610, "ides": 4508, "des ": 2786, "cor": 2554, "ore": 6993, "re ": 7683, " cor": 221, "core": 2558, "ore ": 6994, " b": 117, "bi": 2108, "o-": 6569, "-a": 1111, "na": 6027, "ly": 5690, "yt": 9948, "ca": 2263, " bi": 141, "bio": 2122, "io-": 4813, "-an": 1115, "ana": 1642, "nal": 6044, "aly": 1601, "lyt": 5704, "yti": 9950, "tic": 8890, "ica": 4440, "cal": 2279, "al ": 1531, " bio": 144, "bio-": 2124, "anal": 1647, "naly": 6051, "alyt": 1603, "lyti": 5705, "ytic": 9951, "tica": 8893, "ical": 4444, "cal ": 2280, " e": 299, "el": 3247, "ct": 2604, "tr": 9022, "ni": 6273, "c ": 2251, " el": 314, "ele": 3262, "lec": 5323, "ect": 3105, "ctr": 2622, "tro": 9044, "ron": 8005, "oni": 6883, "nic": 6278, "ic ": 4437, " ele": 315, "elec": 3263, "lect": 5325, "ectr": 3113, "ctro": 2624, "tron": 9048, "roni": 8008, "onic": 6884, "nic ": 6279, " m": 601, "ea": 3000, "as": 1847, "su": 8618, "ur": 9376, "em": 3298, " me": 615, "mea": 5792, "eas": 3044, "asu": 1898, "sur": 8643, "ure": 9389, "rem": 7739, "eme": 3311, "men": 5808, " mea": 616, "meas": 5793, "easu": 3052, "asur": 1900, "sure": 8645, "urem": 9395, "reme": 7740, "emen": 3313, "ment": 5814, "so": 8459, "lu": 5645, "ut": 9461, "ns": 6402, " so": 897, "sol": 8466, "olu": 6793, "lut": 5675, "uti": 9479, "tio": 8923, "ion": 4820, "ons": 6896, "ns ": 6403, " sol": 901, "solu": 8471, "olut": 6795, "luti": 5676, "utio": 9483, "tion": 8924, "ions": 4828, "ons ": 6897, "o ": 6565, " to": 964, "to ": 8966, " to ": 965, "mm": 5887, "mu": 5984, "un": 9315, "omm": 6825, "mmu": 5899, "mun": 5988, "uni": 9332, "cat": 2320, "ati": 1932, "ns,": 6404, "comm": 2538, "ommu": 6829, "mmun": 5900, "muni": 5990, "unic": 9333, "nica": 6281, "icat": 4448, "cati": 2324, "atio": 1936, "ons,": 6898, "ns, ": 6405, "cs": 2598, "ics": 4479, "cs,": 2600, "nics": 6285, "ics,": 4481, "cs, ": 2601, " l": 550, "li": 5396, "if": 4555, "fe": 3750, " li": 567, "lif": 5423, "ife": 4557, "fe ": 3751, " lif": 571, "life": 5424, "ife ": 4558, "sc": 8248, "ci": 2419, "ce": 2341, " sc": 853, "sci": 8257, "cie": 2428, "ien": 4534, "enc": 3344, "nce": 6077, "ces": 2372, " sci": 856, "scie": 8259, "cien": 2429, "ienc": 4536, "ence": 3345, "nces": 6086, "ces,": 2374, "mi": 5841, " ch": 191, "che": 2391, "hem": 4213, "emi": 3315, "mic": 5845, " che": 193, "chem": 2395, "hemi": 4217, "emic": 3316, "mica": 5847, "ys": 9938, "si": 8368, "is": 4922, "lys": 5701, "ysi": 9942, "sis": 8407, "is ": 4923, " ana": 77, "alys": 1602, "lysi": 5702, "ysis": 9944, "sis ": 8408, "du": 2933, "ri": 7819, "ind": 4718, "ndu": 6152, "dus": 2946, "ust": 9452, "str": 8603, "tri": 9036, "rie": 7841, "es.": 3552, " ind": 488, "indu": 4724, "ndus": 6154, "dust": 2947, "ustr": 9460, "stri": 8606, "trie": 9040, "ries": 7844, "ies.": 4545, "es. ": 3553, "of": 6682, "ff": 3777, " of": 690, "off": 6687, "ffe": 3780, "fer": 3764, "rs ": 8073, " off": 692, "offe": 6689, "ffer": 3783, "fers": 3769, "ers ": 3521, "t,": 8676, "nt,": 6458, "t, ": 8677, "ent,": 3390, "nt, ": 6459, "uc": 9159, "r,": 7540, "sem": 8305, "ico": 4472, "con": 2539, "ond": 6864, "duc": 2936, "uct": 9178, "cto": 2620, "tor": 8997, "or,": 6974, "r, ": 7541, " sem": 864, "semi": 8308, "mico": 5849, "icon": 4476, "cond": 2542, "ondu": 6869, "nduc": 6153, "duct": 2940, "ucto": 9181, "ctor": 2621, "tor,": 8999, "or, ": 6975, "bo": 2163, "oa": 6581, "ar": 1754, "rd": 7662, " bo": 151, "boa": 2165, "oar": 6595, "ard": 1772, "rd ": 7663, " boa": 152, "boar": 2166, "oard": 6596, "ard ": 1773, "ng": 6230, "g.": 3924, "tes": 8826, "est": 3588, "sti": 8587, "tin": 8917, "ing": 4744, "ng.": 6239, "g. ": 3925, " tes": 952, "test": 8830, "esti": 3594, "stin": 8591, "ting": 8921, "ing.": 4748, "ng. ": 6240, "lc": 5283, "a ": 1286, " al": 59, "alc": 1545, "lco": 5286, "coa": 2510, " alc": 62, "alco": 1546, "rp": 8047, "po": 7396, "orp": 7035, "rpo": 8054, "por": 7408, "ora": 6979, "rat": 7609, "on ": 6843, "corp": 2560, "orpo": 7038, "rpor": 8055, "pora": 7409, "orat": 6984, "rati": 7612, "ion ": 4821, "ma": 5717, "nu": 6519, "uf": 9215, "fa": 3732, "ac": 1318, "tu": 9078, " ma": 602, "man": 5747, "anu": 1715, "nuf": 6525, "ufa": 9216, "fac": 3735, "act": 1359, "ctu": 2629, "tur": 9093, "res": 7762, " man": 609, "manu": 5753, "anuf": 1716, "nufa": 6526, "ufac": 9217, "fact": 3738, "actu": 1365, "ctur": 2630, "ture": 9096, "ures": 9397, "res ": 7763, "et": 3600, "ta": 8696, "met": 5830, "eta": 3607, "tal": 8716, " met": 625, "meta": 5832, "etal": 3611, "tal ": 8717, "od": 6647, "ts": 9058, "rod": 7979, "odu": 6671, "cts": 2625, "ts.": 9062, "prod": 7462, "rodu": 7981, "oduc": 6672, "ucts": 9182, "cts.": 2628, "ts. ": 9063, "uce": 9162, "duce": 2938, "uces": 9166, "ces ": 2373, "ll": 5472, "ls": 5601, "sel": 8299, "ell": 3275, "lls": 5507, "ls ": 5602, " sel": 863, "sell": 8303, "ells": 3282, "lls ": 5508, "ba": 2035, "au": 1956, "ux": 9511, "xi": 9802, "e,": 2977, " ba": 119, "bau": 2063, "aux": 1974, "uxi": 9512, "xit": 9812, "ite": 4993, "te,": 8766, "e, ": 2978, " bau": 129, "baux": 2064, "auxi": 1975, "uxit": 9513, "xite": 9813, "ite,": 4995, "te, ": 8767, "um": 9286, "a,": 1287, "alu": 1595, "lum": 5664, "umi": 9305, "min": 5863, "ina": 4698, "na,": 6029, "a, ": 1288, " alu": 69, "alum": 1598, "lumi": 5667, "umin": 9306, "mina": 5864, "ina,": 4700, "na, ": 6030, "m ": 5708, "inu": 4801, "num": 6529, "um ": 9287, "minu": 5869, "inum": 4802, "num ": 6530, "rve": 8172, "ves": 9593, "erve": 3540, "rves": 8177, "ves ": 9594, "ry": 8191, "try": 9054, "ry ": 8192, "stry": 8609, "try ": 9055, " w": 1040, "wo": 9757, "rl": 7910, "ld": 5288, "dw": 2958, "wi": 9729, "e.": 2998, " wo": 1065, "wor": 9763, "orl": 7020, "rld": 7913, "ldw": 5305, "dwi": 2963, "wid": 9732, "de.": 2732, "e. ": 2999, " wor": 1068, "worl": 9765, "orld": 7021, "rldw": 7916, "ldwi": 5306, "dwid": 2965, "wide": 9733, "ide.": 4502, "de. ": 2733, "am": 1605, " am": 70, "ame": 1614, "mer": 5817, "eri": 3487, "ric": 7827, "can": 2291, "an ": 1636, " ame": 73, "amer": 1617, "meri": 5822, "eric": 3489, "rica": 7829, "ican": 4445, "can ": 2292, "ai": 1472, "ir": 4880, "ne": 6157, " ai": 52, "air": 1510, "irl": 4905, "rli": 7918, "lin": 5437, "ine": 4725, "nes": 6194, " air": 58, "airl": 1514, "irli": 4906, "rlin": 7919, "line": 5439, "ines": 4735, "nes ": 6195, " g": 403, "gr": 4085, "ou": 7130, "up": 9359, "p ": 7228, " gr": 427, "gro": 4102, "rou": 8028, "oup": 7145, "up ": 9360, " gro": 431, "grou": 4104, "roup": 8031, "oup ": 7146, "op": 6938, "pe": 7279, " op": 708, "ope": 6941, "per": 7308, "era": 3460, " ope": 709, "oper": 6947, "pera": 7311, "erat": 3467, "rate": 7611, "ates": 1922, "tes ": 8827, " as": 96, "as ": 1848, " as ": 97, " an ": 76, "ne ": 6158, "ine ": 4726, " h": 438, "ho": 4287, "di": 2806, "g ": 3916, " ho": 457, "hol": 4292, "old": 6758, "ldi": 5297, "din": 2832, "ng ": 6231, " hol": 458, "hold": 4293, "oldi": 6762, "ldin": 5298, "ding": 2834, "ing ": 4745, "y.": 9864, "ny.": 6561, "y. ": 9865, "any.": 1719, "ny. ": 6562, "y,": 9850, "ny,": 6559, "y, ": 9851, "any,": 1718, "ny, ": 6560, "hr": 4325, "ug": 9220, "gh": 3997, "h ": 4135, "thr": 8874, "hro": 4330, "oug": 7137, "ugh": 9223, "gh ": 3998, " thr": 957, "thro": 8877, "hrou": 4332, "roug": 8029, "ough": 7138, "ugh ": 9224, " it": 511, "its": 5023, "ts ": 9059, " its": 515, "its ": 5024, "ub": 9146, "bs": 2214, "ia": 4382, " su": 917, "sub": 8621, "ubs": 9156, "bsi": 2221, "sid": 8382, "idi": 4511, "dia": 2807, "iar": 4413, "ari": 1797, " sub": 918, "subs": 8622, "ubsi": 9158, "bsid": 2222, "sidi": 8384, "idia": 4512, "diar": 2815, "iari": 4414, "arie": 1800, "sp": 8490, "iz": 5070, "ze": 9967, " sp": 904, "spe": 8495, "pec": 7287, "eci": 3087, "cia": 2421, "ial": 4396, "ali": 1556, "liz": 5464, "ize": 5073, "zes": 9978, " spe": 906, "spec": 8496, "peci": 7288, "ecia": 3088, "cial": 2422, "iali": 4400, "aliz": 1565, "lize": 5466, "izes": 5079, "zes ": 9979, "in ": 4691, " in ": 485, "vidi": 9611, "idin": 4513, "ed": 3122, "ul": 9254, "sch": 8253, "hed": 4201, "edu": 3147, "dul": 2941, "ule": 9258, "led": 5327, "ed ": 3123, " sch": 855, "sche": 8255, "ched": 2393, "hedu": 4203, "edul": 3149, "dule": 2943, "led ": 5328, "ss": 8524, "ge": 3955, "r ": 7534, " pa": 733, "pas": 7266, "ass": 1882, "sse": 8535, "sen": 8309, "eng": 3363, "nge": 6245, "ger": 3980, "er ": 3450, " pas": 741, "pass": 7267, "asse": 1886, "ssen": 8538, "seng": 8311, "enge": 3365, "nger": 6248, "ger ": 3981, " f": 354, "fl": 3832, "ig": 4574, "ht": 4334, " fl": 378, "fli": 3839, "lig": 5428, "igh": 4583, "ght": 4006, "hts": 4342, " fli": 381, "flig": 3840, "ligh": 5430, "ight": 4587, "ghts": 4010, "hts ": 4343, " r": 794, "la": 5224, " re": 802, "rel": 7732, "ela": 3254, "lat": 5266, "ted": 8777, " rel": 810, "rela": 7735, "elat": 3256, "late": 5267, "ated": 1917, "ted ": 8778, "rvi": 8178, "vic": 9606, "ice": 4449, "ervi": 3541, "rvic": 8179, "vice": 9607, "ices": 4454, "ces.": 2375, "cu": 2631, " cu": 234, "cus": 2645, "sto": 8596, "tom": 8980, "ome": 6812, " cus": 237, "cust": 2649, "usto": 9459, "stom": 8599, "tome": 8983, "omer": 6818, "mers": 5823, "ap": 1722, "pp": 7423, "pl": 7365, " ap": 84, "app": 1739, "ppl": 7431, "pli": 7380, "lie": 5418, "ied": 4529, " app": 86, "appl": 1742, "ppli": 7433, "plie": 7383, "lied": 5419, "ied ": 4530, "pt": 7482, "oe": 6677, "opt": 6970, "pto": 7489, "toe": 8973, "oel": 6678, " opt": 712, "oele": 6679, "sup": 8640, "upp": 9369, " sup": 925, "supp": 8642, "uppl": 9370, "lies": 5422, "ies ": 4543, "fi": 3790, "ib": 4420, "be": 2075, "r-": 7542, "-o": 1194, " fi": 367, "fib": 3792, "ibe": 4424, "ber": 2094, "er-": 3455, "pti": 7484, " fib": 368, "fibe": 3793, "iber": 4425, "ber-": 2097, "opti": 6971, "ptic": 7485, "tic ": 8891, " n": 651, "tw": 9105, "rk": 7891, "ki": 5166, " ne": 660, "net": 6201, "etw": 3644, "two": 9112, "ork": 7012, "rki": 7902, "kin": 5172, " net": 665, "netw": 6206, "etwo": 3646, "twor": 9114, "work": 9764, "orki": 7017, "rkin": 7903, "king": 5176, " d": 244, " di": 266, "dio": 2836, "iod": 4814, "ode": 6655, "de ": 2728, " dio": 273, "diod": 2838, "iode": 4815, "ode ": 6656, " la": 551, "las": 5260, "ase": 1857, "rs,": 8074, " las": 556, "lase": 5262, "aser": 1863, "sers": 8321, "ers,": 3522, "rs, ": 8075, "ph": 7331, "ot": 7098, " ph": 753, "pho": 7341, "hot": 4315, "oto": 7119, "tod": 8972, "odi": 6663, " pho": 756, "phot": 7343, "hoto": 4318, "odes": 6660, "des,": 2787, "mb": 5772, "bl": 2139, "bas": 2057, "emb": 3308, "mbl": 5780, "bli": 2151, "ssem": 8537, "semb": 8306, "embl": 3310, "mbli": 5782, "blie": 2153, "mo": 5904, " mo": 635, "mod": 5908, "les": 5357, " mod": 637, "modu": 5912, "odul": 6673, "ules": 9260, "les ": 5358, "eq": 3446, "qu": 7519, "ui": 9228, "ip": 4847, "pm": 7393, "t.": 8694, " eq": 331, "equ": 3447, "qui": 7528, "uip": 9239, "ipm": 4864, "pme": 7394, "nt.": 6463, "t. ": 8695, " equ": 332, "equi": 3449, "quip": 7530, "uipm": 9240, "ipme": 4865, "pmen": 7395, "ent.": 3392, "nt. ": 6464, "cs ": 2599, "ics ": 4480, " u": 990, " un": 995, "nit": 6305, " uni": 998, "unit": 9337, "nite": 6306, "ited": 4998, " st": 910, "sta": 8564, "tat": 8742, " sta": 911, "stat": 8574, "tate": 8743, "tes,": 8828, "wa": 9664, "n,": 6003, " ta": 936, "tai": 8711, "wan": 9673, "an,": 1637, "n, ": 6004, " tai": 938, "an, ": 1638, "hi": 4238, "a.": 1293, "chi": 2399, "hin": 4258, "na.": 6031, "a. ": 1294, " chi": 194, "chin": 2405, "hina": 4259, "ina.": 4701, "na. ": 6032, "aa": 1295, "ao": 1720, "on,": 6846, "on, ": 6847, "gn": 4052, " de": 250, "esi": 3568, "sig": 8387, "ign": 4594, "gns": 4070, " des": 263, "desi": 2788, "esig": 3571, "sign": 8389, "igns": 4601, "gns,": 4072, "res,": 7764, "ke": 5134, "mar": 5755, "ark": 1805, "rke": 7897, "ket": 5151, "ets": 3634, " mar": 611, "mark": 5758, "arke": 1807, "rket": 7899, "kets": 5157, "ets ": 3635, "rc": 7634, "mme": 5890, "erc": 3469, "rci": 7651, "omme": 6826, "mmer": 5891, "merc": 5820, "erci": 3473, "rcia": 7652, "ial ": 4397, "oo": 6916, "ft": 3892, " ro": 829, "roo": 8011, "oof": 6921, "oft": 6693, "top": 8994, "op ": 6939, " roo": 834, "roof": 8012, "top ": 8995, "-c": 1127, "g,": 3919, "r-c": 7545, "-co": 1135, "ndi": 6131, "dit": 2852, "iti": 5006, "nin": 6295, "ng,": 6234, "g, ": 3920, "r-co": 7546, "-con": 1138, "ondi": 6868, "ndit": 6137, "diti": 2855, "itio": 5011, "ioni": 4827, "onin": 6885, "ning": 6296, "ing,": 4746, "ng, ": 6235, " he": 448, "hea": 4192, "eat": 3053, " hea": 449, "heat": 4197, "eati": 3058, "atin": 1935, "at ": 1902, "eat ": 3054, "rec": 7698, "eco": 3095, "cov": 2570, "ove": 7174, "ver": 9582, "ery": 3546, " rec": 804, "reco": 7701, "ecov": 3101, "cove": 2571, "over": 7179, "very": 9592, "ery ": 3547, "oi": 6719, "coi": 2525, "oil": 6724, "ils": 4651, "ls.": 5605, " coi": 216, "oils": 6729, "ls. ": 5606, "y'": 9847, "'s": 1087, "ny'": 6557, "y's": 9848, "'s ": 1088, "any'": 1717, "ny's": 6558, "y's ": 9849, "cts ": 2626, "ve ": 9556, "rve ": 8173, "ria": 7821, "tria": 9037, "rial": 7823, "ew": 3674, "w ": 9659, "new": 6209, "ew ": 3675, " new": 667, "new ": 6210, "ru": 8146, "nst": 6442, "tru": 9050, "ruc": 8149, "cti": 2613, " con": 218, "cons": 2546, "onst": 6903, "nstr": 6447, "stru": 8608, "truc": 9051, "ruct": 8151, "ucti": 9180, "ctio": 2616, "ep": 3422, "rep": 7752, "epl": 3432, "pla": 7366, "lac": 5231, "ace": 1328, "cem": 2358, " rep": 814, "repl": 7754, "epla": 3433, "plac": 7367, "lace": 5232, "acem": 1331, "ceme": 2359, "ets.": 3637, "ad": 1371, "dv": 2950, "va": 9528, " ad": 32, "adv": 1413, "dva": 2951, "van": 9541, "anc": 1648, "ce ": 2342, " adv": 39, "adva": 1414, "dvan": 2952, "vanc": 9542, "ance": 1649, "nce ": 6078, " au": 108, "aut": 1970, "uto": 9486, " aut": 112, "auto": 1972, "uto ": 9487, "rt": 8098, "par": 7259, "art": 1831, "rts": 8135, "ts,": 9060, " par": 740, "part": 7265, "arts": 1838, "rts,": 8137, "ts, ": 9061, " is": 506, " is ": 507, "iv": 5045, "omo": 6832, "mot": 5937, "oti": 7115, "tiv": 8943, "ive": 5050, "utom": 9489, "tomo": 8985, "omot": 6834, "moti": 5939, "otiv": 7118, "tive": 8945, "ive ": 5051, "af": 1428, "rm": 7923, " af": 43, "aft": 1436, "fte": 3894, "ter": 8806, "erm": 3499, "rma": 7929, "et ": 3601, " aft": 46, "afte": 1438, "fter": 3895, "term": 8816, "erma": 3501, "rmar": 7934, "ket ": 5152, "rts ": 8136, "r.": 7549, "der": 2775, "er.": 3458, "r. ": 7550, "ider": 4507, "der.": 2778, "er. ": 3459, " oi": 693, "il ": 4610, " oil": 694, "oil ": 6725, "ds": 2921, "flu": 3845, "lui": 5660, "uid": 9231, "ids": 4518, "ds,": 2923, " flu": 383, "flui": 3846, "luid": 5661, "uids": 9235, "ids,": 4520, "ds, ": 2924, "ex": 3686, "xh": 9801, "ha": 4143, " ex": 345, "exh": 3694, "hau": 4177, "aus": 1968, "st,": 8559, " exh": 348, "haus": 4179, "aust": 1969, "ust,": 9454, "st, ": 8560, "fu": 3900, "ue": 9198, " fu": 396, "fue": 3901, "uel": 9203, "el ": 3248, " fue": 397, "fuel": 3902, "uel ": 9204, "sy": 8658, "ms": 5975, " sy": 931, "sys": 8665, "yst": 9945, "ste": 8576, "tem": 8793, "ems": 3326, "ms,": 5977, " sys": 933, "syst": 8667, "yste": 9947, "stem": 8581, "tems": 8798, "ems,": 3328, "ms, ": 5978, " en": 321, "ngi": 6250, "gin": 4024, " eng": 326, "engi": 3366, "ngin": 6251, "gine": 4027, "gni": 4062, "igni": 4599, "gnit": 4065, "niti": 6307, "ion,": 4822, "coo": 2549, "ool": 6926, "oli": 6771, " coo": 219, "cool": 2551, "olin": 6774, "ling": 5440, "too": 8992, "ols": 6787, "ls,": 5603, " too": 967, "tool": 8993, "ools": 6928, "ols,": 6789, "ls, ": 5604, "sm": 8441, " tr": 974, "tra": 9023, "ran": 7589, "ans": 1696, "nsm": 6432, "smi": 8449, "mis": 5871, "iss": 4965, "ssi": 8542, "sio": 8404, " tra": 975, "tran": 9029, "rans": 7595, "ansm": 1704, "nsmi": 6433, "smis": 8450, "miss": 5872, "issi": 4966, "ssio": 8546, "sion": 8405, "dr": 2903, " dr": 287, "dri": 2909, "riv": 7884, "vet": 9600, "etr": 3630, "rai": 7573, "ain": 1498, "in,": 4692, " dri": 289, "driv": 2912, "rive": 7886, "etra": 3631, "trai": 9027, "rain": 7575, "ain,": 1500, "in, ": 4693, "cc": 2330, " ac": 23, "acc": 1323, "cce": 2331, "ess": 3578, "sso": 8551, "sor": 8478, "ori": 7005, " acc": 25, "acce": 1324, "cces": 2333, "cess": 2376, "esso": 3586, "ssor": 8554, "sori": 8481, "orie": 7008, "da": 2687, " ca": 176, "nad": 6038, "ada": 1375, "da,": 2689, " can": 180, "cana": 2293, "anad": 1645, "nada": 6039, "ada,": 1377, "da, ": 2690, "pu": 7495, " pu": 782, "pue": 7498, "uer": 9209, "ert": 3530, "rto": 8129, " pue": 784, "puer": 7499, "uert": 9210, "erto": 3535, "rto ": 8130, "o,": 6567, " ri": 820, "co,": 2505, "o, ": 6568, " ric": 821, "rico": 7833, "ico,": 4474, "co, ": 2506, " v": 1015, "rg": 7797, " vi": 1028, "vir": 9626, "irg": 4900, "rgi": 7806, " vir": 1033, "virg": 9627, "irgi": 4901, "rgin": 7808, "gin ": 4025, "sl": 8432, "isl": 4952, "sla": 8433, "lan": 5244, "nds": 6148, "ds.": 2925, " isl": 508, "isla": 4953, "slan": 8434, "land": 5247, "ands": 1662, "nds.": 6151, "ds. ": 2926, "ple": 7375, "le ": 5308, "pple": 7432, "ple ": 7376, "tp": 9017, " sm": 890, "sma": 8442, "hon": 4299, "one": 6870, " sma": 891, "smar": 8444, "mart": 5759, "phon": 7342, "hone": 4300, "ones": 6875, "nes,": 6196, " pe": 745, "rso": 8093, "son": 8473, "ona": 6857, " per": 751, "pers": 7316, "erso": 3528, "rson": 8094, "sona": 8475, "onal": 6858, "nal ": 6045, "mpu": 5971, "put": 7509, "ute": 9470, "ompu": 6839, "mput": 5973, "pute": 7510, "uter": 9473, "ters": 8821, "ab": 1296, "tab": 8700, "abl": 1306, "ble": 2144, "let": 5364, " tab": 937, "tabl": 8702, "able": 1307, "blet": 2150, "lets": 5368, "ets,": 3636, "we": 9690, " we": 1048, "wea": 9692, "ear": 3034, "ara": 1760, "rab": 7555, " wea": 1049, "wear": 9695, "eara": 3038, "arab": 1762, "rabl": 7556, "bles": 2149, " a ": 20, "ty": 9116, " va": 1016, "var": 9546, "iet": 4547, "ety": 3647, "ty ": 9117, " var": 1020, "vari": 9547, "riet": 7845, "iety": 4549, "ety ": 3648, "f ": 3719, "of ": 6683, " of ": 691, "als": 1585, "lso": 5607, "so ": 8460, " als": 67, "also": 1589, "lso ": 5608, "ay": 2006, "ym": 9911, "pay": 7273, "aym": 2014, "yme": 9913, " pay": 743, "paym": 7275, "ayme": 2015, "ymen": 9914, "dig": 2828, "igi": 4589, "git": 4033, "ita": 4984, " dig": 271, "digi": 2829, "igit": 4591, "gita": 4034, "ital": 4985, "ont": 6905, "nte": 6476, "ten": 8799, "cont": 2547, "onte": 6908, "nten": 6482, "tent": 8805, "cl": 2480, "ud": 9184, " cl": 202, "clo": 2494, "lou": 5575, "oud": 7133, "ud ": 9185, " clo": 206, "clou": 2497, "loud": 5576, "oud ": 7134, "dve": 2953, "rti": 8118, "tis": 8930, "isi": 4944, "sin": 8398, "adve": 1415, "dver": 2954, "vert": 9591, "erti": 3534, "rtis": 8124, "tisi": 8934, "isin": 4947, "sing": 8401, " ar": 87, "are": 1781, " are": 89, "are ": 1782, "im": 4662, "pri": 7451, "rim": 7855, "ima": 4664, "ril": 7852, "ily": 4660, "ly ": 5691, " pri": 778, "prim": 7454, "rima": 7856, "imar": 4667, "mari": 5757, "aril": 1801, "rily": 7854, "ily ": 4661, "nsu": 6448, "sum": 8635, "ume": 9302, "er,": 3453, "onsu": 6904, "nsum": 6450, "sume": 8637, "umer": 9304, "er, ": 3454, "mal": 5743, "all": 1567, "ll ": 5473, "smal": 8443, "mall": 5746, "all ": 1568, " &": 0, "& ": 1085, " & ": 1, "d-": 2674, "-s": 1219, " mi": 627, "mid": 5852, "id-": 4491, "d-s": 2681, "-si": 1226, "siz": 8421, "zed": 9971, " mid": 629, "mid-": 5853, "id-s": 4492, "d-si": 2682, "-siz": 1227, "size": 8422, "ized": 5076, "zed ": 9972, "bu": 2229, " bu": 166, "bus": 2237, "usi": 9446, "ss,": 8526, " bus": 170, "busi": 2239, "usin": 9448, "sine": 8400, "ness": 6199, "ess,": 3580, "ss, ": 8527, " ed": 308, "uca": 9160, " edu": 311, "educ": 3148, "duca": 2937, "ucat": 9161, "erp": 3514, "rpr": 8057, "ris": 7872, "ise": 4933, "se ": 8275, " ent": 328, "ente": 3394, "nter": 6483, "terp": 8819, "erpr": 3515, "rpri": 8058, "pris": 7456, "rise": 7874, "ise ": 4934, "go": 4073, "rn": 7948, "nm": 6341, " go": 422, "gov": 4083, "ern": 3505, "rnm": 7965, "nme": 6343, " gov": 425, "gove": 4084, "vern": 9589, "ernm": 3509, "rnme": 7966, "nmen": 6344, "tt": 9066, "bat": 2060, "att": 1950, "tte": 9070, " bat": 128, "batt": 2062, "atte": 1952, "tter": 9071, "tery": 8825, "gy": 4128, "ogy": 6710, "gy ": 4129, "logy": 5549, "ogy ": 6711, "ev": 3659, "ps": 7471, "dev": 2793, "eve": 3663, "vel": 9568, "elo": 3284, "lop": 5558, "ops": 6967, "ps ": 7472, " dev": 265, "deve": 2794, "evel": 3665, "velo": 9571, "elop": 3285, "lops": 5563, "ops ": 6968, "do": 2874, " do": 279, "dom": 2883, "mes": 5824, " dom": 283, "dome": 2888, "omes": 6819, "mest": 5829, "stic": 8588, "sus": 8650, "nab": 6033, " sus": 927, "sust": 8651, "usta": 9456, "stai": 8569, "tain": 8713, "aina": 1503, "inab": 4702, "nabl": 6035, "ble ": 2145, "sou": 8486, "our": 7149, "urc": 9385, "cin": 2437, " sou": 903, "sour": 8488, "ourc": 7151, "urci": 9388, "rcin": 7653, "cing": 2439, "cr": 2575, " cr": 226, "cri": 2583, "rit": 7877, " cri": 229, "crit": 2586, "riti": 7879, "itic": 5008, "mat": 5764, " mat": 613, "mate": 5766, "ater": 1921, "teri": 8815, "eria": 3488, "ials": 4402, "als ": 1586, "iu": 5038, "m-": 5711, "-i": 1174, "lit": 5454, "ith": 5002, "thi": 8865, "hiu": 4276, "ium": 5039, "um-": 9290, "m-i": 5712, "-io": 1179, " lit": 579, "lith": 5457, "ithi": 5004, "thiu": 8868, "hium": 4277, "ium-": 5042, "um-i": 9291, "-ion": 1180, "cy": 2655, "yc": 9877, "ecy": 3120, "cyc": 2663, "ycl": 9880, "cli": 2490, "recy": 7704, "ecyc": 3121, "cycl": 2664, "ycli": 9882, "clin": 2493, "xt": 9830, "ext": 3704, "xtr": 9839, "rac": 7557, " ext": 351, "extr": 3708, "xtra": 9840, "trac": 9025, "ract": 7560, "acti": 1362, "fo": 3850, " fo": 384, "for": 3858, "or ": 6973, " for": 388, "for ": 3859, " us": 1008, "use": 9436, " use": 1011, "use ": 9437, "erie": 3490, "tha": 8852, "hat": 4174, " tha": 954, "that": 8855, "hat ": 4175, "ow": 7186, " po": 767, "pow": 7421, "owe": 7190, "wer": 9709, " pow": 774, "powe": 7422, "ower": 7191, "wer ": 9710, "ctri": 2623, "tric": 9039, "ric ": 7828, "car": 2303, "ars": 1827, " car": 182, "cars": 2311, "ars,": 1829, "gri": 4098, "rid": 7835, "id ": 4488, " gri": 430, "grid": 4100, "rid ": 7836, "rag": 7570, "age": 1443, "ge ": 3956, " sto": 914, "stor": 8602, "tora": 9001, "orag": 6981, "rage": 7571, "age ": 1444, "lic": 5408, "plic": 7382, "lica": 5410, "mer ": 5818, "cs.": 2602, "ics.": 4482, "cs. ": 2603, "bb": 2067, " ab": 21, "vie": 9613, "ie ": 4528, "vie ": 9614, "h-": 4138, "-b": 1118, "ese": 3560, "sea": 8281, "arc": 1769, "rch": 7645, "ch-": 2384, "-ba": 1119, "sed": 8290, " res": 815, "rese": 7767, "esea": 3562, "sear": 8283, "earc": 3039, "arch": 1771, "-bas": 1122, "base": 2058, "ased": 1862, "sed ": 8291, "eu": 3650, "iop": 4830, "oph": 6948, "pha": 7332, "har": 4162, "arm": 1812, "mac": 5725, "ceu": 2378, "eut": 3657, "biop": 2128, "ioph": 4831, "opha": 6949, "phar": 7333, "harm": 4168, "arma": 1814, "rmac": 7931, "mace": 5726, "aceu": 1334, "ceut": 2379, "euti": 3658, "utic": 9480, "dis": 2842, "isc": 4930, "sco": 8262, " dis": 275, "disc": 2844, "isco": 4931, "scov": 8268, "vers": 9590, "med": 5799, "edi": 3138, "dic": 2817, "ici": 4460, " med": 618, "medi": 5801, "edic": 3140, "dici": 2819, "icin": 4463, "cine": 2438, "pi": 7348, "her": 4221, "rap": 7597, "api": 1733, "pie": 7352, "ther": 8862, "hera": 4223, "erap": 3465, "rapi": 7600, "apie": 1734, "pies": 7353, "lv": 5679, "olv": 6796, "lve": 5682, "solv": 8472, "olve": 6797, "lve ": 5683, "lt": 5610, "eal": 3018, "alt": 1590, "lth": 5622, "th ": 8847, "heal": 4194, "ealt": 3024, "alth": 1592, "lth ": 5623, "ssu": 8555, "sue": 8625, "ues": 9211, " iss": 510, "issu": 4968, "ssue": 8556, "sues": 8627, "ues ": 9212, "os": 7060, "acr": 1357, "cro": 2587, "ros": 8020, "oss": 7085, "ss ": 8525, " acr": 29, "acro": 1358, "cros": 2591, "ross": 8024, "oss ": 7086, " im": 481, "imm": 4680, "uno": 9344, "gy,": 4130, " imm": 483, "immu": 4681, "muno": 5991, "unol": 9345, "ogy,": 6712, "gy, ": 4131, " on": 701, "onc": 6861, "nco": 6097, "col": 2527, " onc": 704, "onco": 6863, "ncol": 6099, "colo": 2531, "ae": 1419, " ae": 40, "aes": 1426, "sth": 8585, "het": 4234, "eti": 3623, " aes": 42, "aest": 1427, "esth": 3593, "sthe": 8586, "thet": 8864, "heti": 4235, "etic": 3624, "tics": 8896, "neu": 6207, "eur": 3653, "uro": 9410, "osc": 7068, "ce,": 2343, " neu": 666, "neur": 6208, "euro": 3654, "uros": 9415, "rosc": 8021, "osci": 7069, "nce,": 6079, "ce, ": 2344, "ey": 3709, "ye": 9887, " ey": 352, "eye": 3715, "ye ": 9888, " eye": 353, "eye ": 3716, "re.": 7688, "care": 2307, "are.": 1785, "re. ": 7689, "pat": 7269, "tie": 8900, "nts": 6510, " pat": 742, "pati": 7272, "atie": 1934, "tien": 8901, "ient": 4538, "ents": 3399, "nts ": 6511, "bc": 2071, "cel": 2354, "lle": 5485, "ler": 5351, "ra ": 7551, "cell": 2357, "elle": 3278, "ller": 5489, "lera": 5354, "era ": 3461, "iol": 4816, "gic": 4014, "biol": 2125, "iolo": 4817, "ogic": 6701, "gics": 4017, " pha": 754, "nex": 6213, "xt ": 9831, " nex": 668, "next": 6215, "ext ": 3705, " ge": 410, "gen": 3970, "ene": 3356, "ner": 6185, " gen": 413, "gene": 3974, "ener": 3360, "nera": 6188, "ape": 1728, "peu": 7326, "rape": 7598, "apeu": 1730, "peut": 7327, "ant": 1706, "nti": 6487, "tib": 8887, "ibo": 4431, "bod": 2167, "die": 2823, " ant": 82, "anti": 1711, "ntib": 6489, "tibo": 8889, "ibod": 4432, "bodi": 2168, "dies": 2825, "omb": 6810, "mbi": 5777, "bin": 2117, "nat": 6063, "comb": 2536, "ombi": 6811, "mbin": 5779, "bina": 2118, "inat": 4707, "nati": 6065, "ncl": 6095, "clu": 2498, "lud": 5653, "udi": 9194, "incl": 4715, "nclu": 6096, "clud": 2500, "ludi": 5655, "udin": 9196, "rop": 8015, "opr": 6964, "tar": 8735, "ary": 1843, "prop": 7467, "ropr": 8019, "opri": 6965, "prie": 7453, "ieta": 4548, "etar": 3612, "tary": 8738, "ary ": 1844, "za": 9961, "niz": 6317, "iza": 5071, "zat": 9965, "niza": 6318, "izat": 5072, "zati": 9966, "icr": 4477, "rof": 7983, " mic": 628, "micr": 5850, "icro": 4478, "uidi": 9234, "-t": 1234, "hp": 4323, " hi": 453, "hig": 4251, "gh-": 3999, "-th": 1239, "ut ": 9462, " hig": 454, "high": 4252, "igh-": 4585, "-thr": 1241, "mag": 5731, " ima": 482, "imag": 4665, "magi": 5733, "agin": 1456, "ging": 4028, "eno": 3377, "nom": 6372, "omi": 6821, "geno": 3976, "enom": 3378, "nomi": 6375, "omic": 6822, "mics": 5851, "uta": 9463, "utat": 9465, "tati": 8744, "lab": 5226, "abo": 1309, "bor": 2178, "ato": 1942, "ory": 7057, " lab": 552, "labo": 5229, "abor": 1311, "bora": 2179, "rato": 7613, "ator": 1944, "tory": 9007, "ory ": 7058, "n.": 6023, "oma": 6806, "on.": 6855, "n. ": 6024, "toma": 8982, "omat": 6809, "mati": 5767, "ion.": 4824, "on. ": 6856, "da.": 2691, "ada.": 1378, "da. ": 2692, "eo": 3406, "abe": 1300, "eon": 3412, "na ": 6028, " le": 560, "lea": 5317, "ead": 3008, "adi": 1397, " lea": 561, "lead": 5318, "eadi": 3010, "adin": 1399, "l-": 5213, "ini": 4757, "al-": 1534, "l-s": 5217, "-st": 1231, "tag": 8709, " cli": 205, "lini": 5441, "inic": 4759, "cal-": 2282, "al-s": 1535, "l-st": 5219, "-sta": 1232, "stag": 8568, "tage": 8710, " no": 673, "nov": 6390, " nov": 677, "nove": 6392, "ovel": 7176, "vel ": 9569, "ene ": 3357, "e-": 2979, "e-t": 2996, "hre": 4326, "rea": 7690, "eni": 3369, "thre": 8875, "hrea": 4327, "reat": 7697, "eate": 3056, "aten": 1920, "teni": 8803, "enin": 3371, " ra": 795, "rar": 7602, " rar": 799, "rare": 7603, "ses": 8323, "dise": 2845, "isea": 4937, "seas": 8284, "ease": 3048, "ases": 1864, "ses.": 8326, "v ": 9523, "amb": 1610, "mbe": 5775, "bev": 2105, "ev ": 3660, " amb": 72, "sa": 8214, " sa": 843, "sa ": 8215, " sa ": 844, "mary": 5760, "ess ": 3579, "ist": 4969, "rib": 7824, "ibu": 4435, "but": 2241, "dist": 2851, "istr": 4975, "trib": 9038, "ribu": 7826, "ibut": 4436, "buti": 2243, "ee": 3151, " be": 131, "bee": 2085, "eer": 3171, " bee": 135, "beer": 2086, "sof": 8464, "ft ": 3893, " sof": 900, "soft": 8465, "oft ": 6694, "nk": 6323, "ks": 5195, "rin": 7858, "ink": 4766, "nks": 6332, "ks ": 5196, "drin": 2911, "rink": 7862, "inks": 4768, "nks ": 6333, "n-": 6005, "oh": 6715, "non": 6378, "on-": 6848, "n-a": 6006, "-al": 1114, "coh": 2523, "oho": 6717, " non": 674, "non-": 6379, "on-a": 6849, "lcoh": 5287, "coho": 2524, "ohol": 6718, "holi": 4295, "olic": 6772, "lic ": 5409, "rb": 7625, "n-c": 6009, "-ca": 1128, "arb": 1766, "rbo": 7629, "bon": 2172, "on-c": 6851, "n-ca": 6010, "-car": 1130, "carb": 2305, "arbo": 1767, "rbon": 7630, "onat": 6860, "nate": 6064, "esse": 3583, "sses": 8540, "ses ": 8324, " wi": 1058, "wit": 9744, " wit": 1064, "with": 9746, "ith ": 5003, "br": 2193, " br": 160, "bra": 2194, " bra": 161, "bran": 2196, "rand": 7591, " ha": 439, "has": 4171, " has": 444, "has ": 4172, "xc": 9786, "exc": 3690, "lus": 5673, "siv": 8419, " exc": 346, "lusi": 5674, "sive": 8420, "tl": 8950, "bot": 2182, "ott": 7124, "ttl": 9074, "tle": 8953, " bot": 157, "bott": 2186, "ottl": 7126, "ttle": 9075, "ler ": 5352, "buto": 2244, "utor": 9491, "tor ": 8998, "rig": 7848, " rig": 823, "righ": 7850, "i ": 4369, "pep": 7307, "psi": 7478, " pep": 750, "sd": 8274, " cs": 233, "az": 2022, "zi": 9980, "l.": 5222, "raz": 7623, "azi": 2026, "zil": 9981, "il.": 4613, "l. ": 5223, "braz": 2198, "razi": 7624, "azil": 2027, "zil.": 9983, "il. ": 4614, "nb": 6069, "b,": 2030, "irb": 4886, "b, ": 2031, "nl": 6335, "onl": 6888, "nli": 6338, " onl": 706, "onli": 6889, "nlin": 6339, "etp": 3628, "tpl": 9020, "ketp": 5156, "etpl": 3629, "tpla": 9021, "ace ": 1329, "av": 1976, "rav": 7617, "ave": 1980, "trav": 9032, "rave": 7618, "avel": 1982, "nf": 6218, "inf": 4737, "nfo": 6226, "orm": 7022, " inf": 489, "info": 4742, "nfor": 6227, "form": 3863, "orma": 7026, "rmat": 7935, "ok": 6741, "boo": 2176, "ook": 6922, "oki": 6747, " boo": 155, "book": 2177, "ooki": 6924, "okin": 6748, "dg": 2798, " lo": 583, "lod": 5542, "odg": 6661, "dgi": 2801, " lod": 586, "lodg": 5543, "odgi": 6662, "dgin": 2802, "hom": 4297, "e-s": 2994, "tay": 8749, "ay,": 2008, " hom": 459, "home": 4298, "e-st": 2995, "ay, ": 2009, "tou": 9011, "uri": 9403, "ism": 4954, " tou": 971, "tour": 9012, "ouri": 7152, "via": 9603, "ia ": 4383, " via": 1029, "via ": 9604, "eb": 3066, "web": 9697, "ebs": 3072, "sit": 8412, " web": 1050, "webs": 9699, "ebsi": 3073, "bsit": 2223, "site": 8414, "ites": 5001, "ob": 6602, "mob": 5906, "obi": 6609, "bil": 2113, " mob": 636, "mobi": 5907, "obil": 6610, "bile": 2114, "ile ": 4625, "ns.": 6406, "ons.": 6899, "ns. ": 6407, "b ": 2029, "clie": 2491, "lien": 5420, "lty": 5642, " rea": 803, "real": 7694, "alty": 1594, "lty ": 5643, "rus": 8167, " tru": 979, "trus": 9053, "rust": 8169, "eal ": 3019, " es": 334, "te ": 8765, " est": 336, "esta": 3591, "ate ": 1913, "fin": 3811, "nan": 6055, " fin": 372, "fina": 3812, "inan": 4705, "nanc": 6056, "nv": 6540, "inv": 4804, "nve": 6544, "sts": 8610, " inv": 498, "inve": 4806, "nves": 6547, "vest": 9599, "ests": 3598, "sts ": 8611, "bri": 2201, "idg": 4509, "dge": 2799, " bri": 163, "brid": 2203, "ridg": 7839, "idge": 4510, "dge ": 2800, "ez": 3718, "zz": 9996, "zza": 9997, "zan": 9962, "ani": 1675, "anin": 1680, "loa": 5533, "oan": 6592, " loa": 584, "loan": 5535, "oans": 6594, "ans,": 1698, "ef": 3182, "rr": 8059, "pre": 7441, "ref": 7716, "efe": 3183, "err": 3516, "rre": 8063, "red": 7705, " pre": 777, "pref": 7445, "efer": 3185, "ferr": 3768, "erre": 3518, "rred": 8064, "red ": 7706, "uit": 9247, "ity": 5033, "quit": 7533, "uity": 9252, "ity ": 5034, "d,": 2672, "nd,": 6113, "d, ": 2673, "and,": 1654, "nd, ": 6114, "lim": 5434, "imi": 4675, "mit": 5874, " lim": 574, "limi": 5436, "imit": 4678, "mite": 5875, "cas": 2313, " cas": 183, "case": 2315, "ses,": 8325, "cou": 2567, "oun": 7142, "unt": 9349, "scou": 8267, "coun": 2568, "ount": 7144, "unte": 9352, "nted": 6478, "tg": 8844, "ga": 3926, "mor": 5928, "ort": 7044, "rtg": 8112, "tga": 8845, "gag": 3927, " mor": 640, "mort": 5933, "ortg": 7051, "rtga": 8113, "tgag": 8846, "gage": 3928, "not": 6388, "ote": 7104, " not": 676, " ot": 722, "oth": 7111, " oth": 723, "othe": 7113, "her ": 4222, "set": 8328, " ass": 100, "sset": 8541, "sets": 8331, "abs": 1315, "bsc": 2218, "ci ": 2420, "sci ": 8258, "yn": 9916, "syn": 8663, "ynt": 9921, "nth": 6485, " syn": 932, "synt": 8664, "ynth": 9922, "nthe": 6486, "nsl": 6430, "ansl": 1703, "nsla": 6431, "slat": 8435, "nif": 6289, "ifi": 4564, "fie": 3800, "unif": 9334, "nifi": 6290, "ifie": 4566, "fies": 3803, "gic ": 4015, "dru": 2917, "rug": 8154, "ug ": 9221, " dru": 291, "drug": 2918, "rug ": 8155, "opm": 6957, "lopm": 5562, "opme": 6958, "oc": 6620, "roc": 7975, "oce": 6626, "proc": 7461, "roce": 7976, "oces": 6628, "eg": 3194, "int": 4790, "teg": 8782, "egr": 3210, "gra": 4086, " int": 497, "inte": 4795, "nteg": 6480, "tegr": 8784, "egra": 3211, "grat": 4092, "cre": 2578, " cre": 228, "crea": 2579, "tf": 8840, "m.": 5715, " pl": 763, "atf": 1923, "tfo": 8841, "rm.": 7927, "m. ": 5716, " pla": 764, "plat": 7371, "latf": 5268, "atfo": 1924, "tfor": 8843, "orm.": 7025, "rm. ": 7928, "tes.": 8829, "tt ": 9067, "ott ": 7125, "tori": 9004, "ps,": 7473, "ops,": 6969, "ps, ": 7474, "bro": 2207, "roa": 7970, "oad": 6582, "ad ": 1372, " bro": 164, "broa": 2208, "road": 7971, "oad ": 6583, "div": 2859, "rsi": 8088, "sif": 8385, " div": 276, "dive": 2860, "iver": 5055, "ersi": 3527, "rsif": 8089, "sifi": 8386, "fied": 3801, " lin": 575, "ude": 9190, "lude": 5654, "ude ": 9191, "cals": 2287, "als,": 1587, "l,": 5211, " nu": 678, "nut": 6538, "utr": 9494, "al,": 1532, "l, ": 5212, " nut": 682, "nutr": 6539, "utri": 9495, "trit": 9043, "iona": 4825, "nal,": 6046, "al, ": 1533, "iag": 4393, "agn": 1459, "gno": 4068, "nos": 6384, "ost": 7088, " dia": 267, "diag": 2812, "iagn": 4395, "agno": 1460, "gnos": 4069, "nost": 6387, "osti": 7092, "vas": 9548, "asc": 1855, "scu": 8272, "cul": 2634, "ula": 9255, "lar": 5254, "ar ": 1755, "vasc": 9549, "ascu": 1856, "scul": 8273, "cula": 2635, "ular": 9256, "lar ": 5255, "ide ": 4499, "aff": 1432, "ffi": 3784, "fil": 3805, "ili": 4632, "lia": 5398, "iat": 4416, " aff": 44, "affi": 1433, "fili": 3807, "ilia": 4633, "liat": 5405, "iate": 4417, "ors": 7040, "rs.": 8076, "tors": 9006, "ors.": 7043, "rs. ": 8077, "tc": 8751, "bit": 2133, "itc": 4990, "tco": 8755, "oin": 6732, " bit": 145, "bitc": 2135, "itco": 4992, "tcoi": 8757, "coin": 2526, "oin ": 6733, "p.": 7232, "rp.": 8049, "p. ": 7233, "orp.": 7037, "rp. ": 8050, " min": 631, "mini": 5868, "inin": 4760, "tre": 9033, "ury": 9426, " tre": 976, "trea": 9034, "reas": 7696, "sury": 8649, "ury ": 9427, "ccu": 2339, "cum": 2638, "mul": 5985, "accu": 1327, "mula": 5986, "ulat": 9257, "lati": 5269, "rm ": 7924, "orm ": 7023, "sca": 8249, "ale": 1548, " sca": 854, "scal": 8250, "cale": 2284, "cip": 2442, "ipl": 4862, "ned": 6167, "plin": 7385, "ined": 4731, "ned ": 6168, "egi": 3202, " str": 915, "stra": 8604, "trat": 9031, "ateg": 1918, "tegi": 8783, "egie": 3204, "rbu": 7631, "utu": 9501, "tus": 9100, "us ": 9428, "arbu": 1768, "ma ": 5718, "rma ": 7930, "veri": 9588, "erin": 3492, "ring": 7861, "opi": 6952, "pin": 7355, "lopi": 5561, "opin": 6954, "ping": 7357, "izi": 5080, "zin": 9984, "lizi": 5467, "izin": 5081, "zing": 9986, "rtf": 8110, "fol": 3853, "lio": 5444, "io ": 4810, " por": 770, "port": 7410, "ortf": 7050, "rtfo": 8111, "tfol": 8842, "foli": 3854, "olio": 6775, "lio ": 5445, "did": 2821, "ida": 4493, "dat": 2706, "cand": 2295, "andi": 1660, "ndid": 6134, "dida": 2822, "idat": 4495, "date": 2708, "suf": 8628, "uff": 9218, " suf": 920, "suff": 8629, "uffe": 9219, "feri": 3767, "fr": 3868, " fr": 390, "fro": 3882, "rom": 8002, "om ": 6801, " fro": 394, "from": 3883, "rom ": 8003, "chr": 2415, " chr": 196, "chro": 2416, "hron": 4331, "epa": 3424, "tit": 8937, "titi": 8939, "itis": 5012, "tis ": 8931, " b ": 118, "nfe": 6221, "fec": 3754, "infe": 4739, "nfec": 6222, "fect": 3755, "ecti": 3110, "ax": 2000, "x ": 9779, "abi": 1302, "iva": 5047, "vax": 9555, "ax ": 2001, "iot": 4838, "biot": 2130, "iote": 4840, "otec": 7106, "foc": 3851, "ocu": 6643, " foc": 385, "focu": 3852, "ocus": 6646, "cuse": 2647, "uses": 9442, " on ": 702, "arn": 1818, "rne": 7956, " har": 443, "harn": 4169, "arne": 1819, "rnes": 7958, "dy": 2966, "ody": 6674, " bod": 153, "body": 2169, " na": 654, "atu": 1954, "ura": 9378, "ral": 7577, " nat": 657, "natu": 6066, "atur": 1955, "tura": 9094, "ural": 9380, "ral ": 7578, "gu": 4117, "reg": 7719, "egu": 3213, "gul": 4124, " reg": 807, "regu": 7723, "egul": 3214, "gula": 4125, "lato": 5270, "mec": 5797, "cha": 2385, "han": 4155, "nis": 6302, "ms ": 5976, " mec": 617, "mech": 5798, "echa": 3085, "chan": 2387, "hani": 4159, "dula": 2942, "une": 9329, "mune": 5989, "une ": 9330, "esp": 3577, "spo": 8508, "pon": 7403, "nse": 6412, "resp": 7771, "spon": 8509, "pons": 7405, "nse ": 6413, "nfl": 6224, "fla": 3833, "lam": 5242, "amm": 1624, "mma": 5888, "infl": 4741, "nfla": 6225, "flam": 3834, "lamm": 5243, "amma": 1625, "mmat": 5889, "mato": 5768, "fra": 3869, "ce.": 2346, " fra": 391, "fran": 3872, "ranc": 7590, "nce.": 6081, "ce. ": 2347, "aca": 1320, "cad": 2274, " aca": 24, "acad": 1321, "cadi": 2276, "adia": 1398, "dia ": 2808, "ry,": 8193, "ery,": 3548, "ry, ": 8194, "liza": 5465, "mol": 5916, "ole": 6764, "ecu": 3116, " mol": 638, "mole": 5917, "olec": 6766, "lecu": 5326, "ecul": 3117, "cule": 2636, "ule ": 9259, "gs": 4107, "ugs": 9226, "gs ": 4108, "rugs": 8156, "ugs ": 9227, "tm": 8959, "atm": 1940, "tme": 8960, "eatm": 3059, "atme": 1941, "tmen": 8961, " ce": 186, "cen": 2360, "ntr": 6505, " cen": 189, "cent": 2362, "entr": 3398, "ntra": 6506, "tral": 9028, "vo": 9640, "rvo": 8181, "vou": 9650, "ous": 7154, " ner": 664, "nerv": 6192, "ervo": 3542, "rvou": 8182, "vous": 9651, "ous ": 7155, "em ": 3299, "tem ": 8794, "iso": 4955, "ord": 6989, "rde": 7669, "diso": 2848, "isor": 4957, "sord": 8480, "orde": 6991, "rder": 7671, "ders": 2783, "ers.": 3523, "ced": 2350, "uced": 9164, "ced ": 2351, "sf": 8339, " dy": 296, "fun": 3905, "unc": 9319, "nct": 6106, " dys": 298, "func": 3906, "unct": 9322, "ncti": 6107, "n'": 6000, "ins": 4782, "nso": 6434, "on'": 6844, "n's": 6001, "park": 7264, "kins": 5177, "inso": 4786, "nson": 6436, "on's": 6845, "n's ": 6002, "se,": 8276, "ase,": 1859, "se, ": 8277, "zo": 9989, "izo": 5082, "ren": 7743, "nia": 6274, "ia,": 4384, "nia,": 6276, "ia, ": 4385, "opa": 6940, "ath": 1925, "hic": 4243, "urop": 9414, "path": 7271, "athi": 1928, "hic ": 4244, "pai": 7242, " pai": 736, "pain": 7245, "gl": 4035, " gl": 418, "gla": 4036, "lau": 5271, "auc": 1957, "uco": 9177, "ma.": 5721, " gla": 419, "glau": 4038, "coma": 2535, "ma. ": 5722, "aur": 1966, " aur": 110, "nn": 6346, "ann": 1689, "nna": 6348, "bis": 2131, "cann": 2296, "anna": 1690, "nnab": 6349, "nabi": 6034, "abis": 1305, "bis ": 2132, ".,": 1258, "c.,": 2261, "., ": 1259, "nc.,": 6075, "c., ": 2262, "nga": 6241, "ged": 3965, "enga": 3364, "ngag": 6242, "aged": 1448, "ged ": 3966, "dica": 2818, "is.": 4926, "is. ": 4927, " ve": 1021, "lly": 5513, " ver": 1026, "rtic": 8119, "call": 2286, "ally": 1577, "lly ": 5514, "hor": 4307, "riz": 7889, "zon": 9990, "nta": 6465, " hor": 461, "hori": 4309, "oriz": 7011, "rizo": 7890, "izon": 5083, "onta": 6907, "ntal": 6471, "tall": 8722, " ev": 341, " eve": 343, "ever": 3667, " k": 533, " ke": 536, "key": 5158, "ey ": 3710, " key": 538, "key ": 5159, "gm": 4047, "seg": 8295, "egm": 3207, "gme": 4050, " seg": 862, "segm": 8296, "egme": 3208, "gmen": 4051, "val": 9537, "lue": 5656, "ue ": 9199, " val": 1018, "valu": 9539, "alue": 1597, "lue ": 5657, "hai": 4147, " cha": 192, "chai": 2386, "hain": 4148, " fa": 355, "aci": 1339, "cil": 2435, " fac": 357, "faci": 3737, "acil": 1342, "cili": 2436, "ilit": 4637, "lity": 5459, "nee": 6169, "inee": 4732, "neer": 6171, "eeri": 3174, "gn ": 4053, "ign ": 4595, "bre": 2199, "ree": 7711, "eed": 3158, " bre": 162, "enet": 3361, "neti": 6204, "h,": 4136, "ch,": 2382, "h, ": 4137, "rch,": 7647, "ch, ": 2383, "emp": 3322, " hem": 451, "vat": 9551, " der": 262, "deri": 2780, "eriv": 3496, "riva": 7885, "ivat": 5049, "vati": 9553, "ativ": 1937, "ives": 5056, "ves,": 9595, "me ": 5789, "ome ": 6813, "ult": 9278, "lti": 5627, " cul": 235, "cult": 2637, "ulti": 9281, "ac ": 1319, "prof": 7463, "frac": 3870, "hy": 4357, "yd": 9883, " hy": 468, "hyd": 4361, "ydr": 9884, "dra": 2904, "rau": 7615, "aul": 1962, "uli": 9265, " hyd": 470, "hydr": 4362, "ydra": 9885, "raul": 7616, "auli": 1963, "ulic": 9266, "turi": 9097, "urin": 9404, "mpl": 5955, "ompl": 6836, "mple": 5957, "plet": 7378, "leti": 5367, " up": 1002, "ups": 9372, "pst": 7479, "eam": 3025, "am ": 1606, " ups": 1003, "stre": 8605, "ream": 7695, "eam ": 3026, " ga": 404, "gas": 3941, " gas": 408, "gas ": 3942, "nie": 6286, "pani": 7255, "anie": 1678, "nies": 6288, "xp": 9817, "exp": 3698, "xpl": 9824, "plo": 7386, "lor": 5564, " exp": 350, "expl": 3701, "xplo": 9825, "plor": 7387, "lora": 5566, "nor": 6381, "rth": 8114, " nor": 675, "nort": 6383, "orth": 7052, "rth ": 8115, "onv": 6911, "ven": 9576, " unc": 996, "unco": 9321, "ncon": 6101, "conv": 2548, "onve": 6912, "nven": 6545, "vent": 9580, "enti": 3395, "ntio": 6495, "eso": 3574, "rce": 7638, "reso": 7770, "esou": 3576, "urce": 9386, "rces": 7644, "ch ": 2381, " arc": 88, "rch ": 7646, "cap": 2298, "pit": 7363, " cap": 181, "capi": 2300, "apit": 1735, "pita": 7364, "td": 8759, "d.": 2685, " lt": 593, "ltd": 5617, "td.": 8761, "d. ": 2686, " ltd": 594, "ltd.": 5619, "td. ": 8762, "nci": 6090, "anci": 1651, "ncia": 6091, "fe,": 3752, "ife,": 4559, "fe, ": 3753, "th,": 8848, "lth,": 5624, "th, ": 8849, "rty": 8143, "rope": 8017, "pert": 7317, "erty": 3537, "rty ": 8144, " ins": 496, "insu": 4789, "nsur": 6451, "sura": 8644, "uran": 9381, "ei": 3228, "rei": 7728, "ein": 3234, " rei": 809, "rein": 7730, "eins": 3236, "cts,": 2627, "wel": 9704, " wel": 1052, "well": 9706, "ell ": 3276, "glo": 4042, "lob": 5537, "oba": 6604, "bal": 2044, "ly.": 5695, " glo": 420, "glob": 4043, "loba": 5538, "obal": 6606, "ball": 2047, "lly.": 5516, "ly. ": 5696, "hc": 4189, "thc": 8856, "hca": 4190, "lthc": 5626, "thca": 8857, "hcar": 4191, "k ": 5117, "rk ": 7892, "ork ": 7013, "eh": 3217, "beh": 2087, "eha": 3218, "hav": 4180, "avi": 1984, "vio": 9624, "ior": 4832, " beh": 136, "beha": 2088, "ehav": 3220, "havi": 4182, "avio": 1988, "vior": 9625, "iora": 4834, "oral": 6982, " ps": 780, "psy": 7480, "syc": 8659, "ych": 9878, "hia": 4239, "atr": 1945, " psy": 781, "psyc": 7481, "sych": 8660, "ychi": 9879, "chia": 2400, "hiat": 4240, "iatr": 4419, "atri": 1946, "dep": 2770, "epe": 3427, "pen": 7298, "end": 3349, "nde": 6124, "den": 2761, "ncy": 6108, "cy ": 2656, " dep": 261, "depe": 2772, "epen": 3428, "pend": 7301, "ende": 3352, "nden": 6127, "denc": 2763, "ency": 3348, "ncy ": 6109, "np": 6397, "inp": 4780, "npa": 6398, " inp": 495, "inpa": 4781, "npat": 6399, "hos": 4311, "osp": 7080, "spi": 8502, " hos": 462, "hosp": 4313, "ospi": 7084, "spit": 8505, "tals": 8724, "tia": 8884, "resi": 7769, "esid": 3570, "side": 8383, "iden": 4505, "dent": 2765, "ntia": 6488, "tial": 8885, " ou": 724, "out": 7160, "utp": 9492, "tpa": 9018, " out": 725, "outp": 7168, "utpa": 9493, "tpat": 9019, "cho": 2412, "hoo": 4301, "ol ": 6752, "scho": 8256, "choo": 2413, "hool": 4303, "ool ": 6927, " bas": 127, "rog": 7986, "ogr": 6706, "ram": 7583, "ams": 1632, "ms.": 5979, "prog": 7464, "rogr": 7988, "ogra": 6707, "gram": 4089, "rams": 7588, "ams.": 1635, "ms. ": 5980, "rche": 7649, "cher": 2397, " av": 113, " avi": 115, "avia": 1985, "viat": 9605, "iati": 4418, "aer": 1423, "ero": 3510, "spa": 8491, "pac": 7236, " aer": 41, "aero": 1425, "eros": 3513, "rosp": 8023, "ospa": 7081, "spac": 8492, "pace": 7237, "ak": 1523, "tak": 8714, "ake": 1525, "ff ": 3778, " tak": 939, "take": 8715, " lan": 554, "ndin": 6135, "irc": 4887, "rcr": 7656, "cra": 2576, "raf": 7568, "airc": 1513, "ircr": 4888, "rcra": 7657, "craf": 2577, "raft": 7569, "ach": 1335, "hie": 4249, "iev": 4550, " ach": 26, "achi": 1337, "chie": 2402, "hiev": 4250, "ieve": 4551, "eve ": 3664, "dd": 2719, "add": 1384, "ddr": 2726, "dre": 2906, " add": 34, "addr": 1387, "ddre": 2727, "dres": 2908, "ress": 7772, "bal ": 2045, " ni": 669, "cot": 2566, " nic": 670, "nico": 6284, "tine": 8920, "ddi": 2722, "ict": 4483, "addi": 1386, "dict": 2820, "icti": 4484, " ep": 330, "epi": 3431, "pid": 7351, "dem": 2758, "demi": 2760, "mic ": 5846, "mbu": 5784, "ibl": 4429, "bust": 2240, "usti": 9458, "tibl": 8888, "ible": 4430, " ci": 197, "cig": 2433, "iga": 4576, "gar": 3939, "ret": 7774, "ett": 3638, " cig": 198, "ciga": 2434, "igar": 4578, "aret": 1792, "rett": 7779, "ette": 3640, " e-": 300, "e-c": 2983, " e-c": 301, "usa": 9431, "sag": 8226, " usa": 1010, "sage": 8227, " cy": 240, "cyt": 2665, "icl": 4469, "ne.": 6162, " cyt": 243, "ine.": 4729, "ne. ": 6163, "lb": 5281, "alb": 1543, "lbe": 5282, "tso": 9064, " alb": 61, "albe": 1544, "bert": 2099, "erts": 3536, "sons": 8477, "ail": 1487, " ret": 816, "reta": 7775, "etai": 3610, "tail": 8712, "ails": 1493, "ils ": 4652, "foo": 3855, "ood": 6917, "od ": 6648, " foo": 387, "food": 3856, "ood ": 6918, "bute": 2242, "utes": 9474, "fru": 3886, "rui": 8157, " fru": 395, "frui": 3887, "ruit": 8159, "uits": 9251, "its,": 5025, "veg": 9562, "ege": 3198, "get": 3990, " veg": 1023, "vege": 9563, "eget": 3200, "geta": 3992, "etab": 3609, "les,": 5359, "nne": 6350, "anne": 1691, "nned": 6352, " ite": 514, "item": 4999, "goo": 4079, "ods": 6666, " goo": 424, "good": 4080, "oods": 6920, "ods.": 6669, " aci": 27, "de,": 2729, "ide,": 4500, "de, ": 2730, "ppo": 7435, "uppo": 9371, "ppor": 7436, "orts": 7055, "ftw": 3898, "twa": 9106, "war": 9674, "oftw": 6695, "ftwa": 3899, "twar": 9107, "ware": 9676, "und": 9323, "ds ": 2922, " fun": 399, "fund": 3907, "unds": 9328, "nds ": 6149, "nsf": 6417, "sfe": 8340, "ansf": 1701, "nsfe": 6418, "sfer": 8341, "fer ": 3765, "et.": 3605, "ket.": 5153, "et. ": 3606, "used": 9439, "nsa": 6408, "sac": 8221, "ansa": 1700, "nsac": 6409, "sact": 8223, "nvo": 6550, "vol": 9645, "vin": 9621, "invo": 4807, "nvol": 6551, "volv": 9648, "ving": 9622, "it ": 4979, "cred": 2580, "redi": 7709, "edit": 3142, "dit ": 2853, "rds": 7677, "card": 2306, "ards": 1779, "rds,": 7679, "deb": 2736, "ebi": 3069, " deb": 253, "debi": 2737, "ebit": 3070, "bit ": 2134, "rt ": 8099, "art ": 1832, "ban": 2048, "ank": 1683, "nki": 6329, " ban": 125, "bank": 2052, "anki": 1687, "nkin": 6330, "ck": 2454, "hec": 4199, "eck": 3092, "cks": 2473, "ks,": 5197, "chec": 2392, "heck": 4200, "cks,": 2475, "ks, ": 5198, "cle": 2484, " cle": 204, "clea": 2487, "lear": 5320, "eari": 3040, "arin": 1802, "lem": 5338, " set": 868, "sett": 8332, "leme": 5339, "ecom": 3097, "com ": 2533, "ofe": 6685, "fes": 3771, "rofe": 7984, "ofes": 6686, "fess": 3773, "essi": 3584, "hni": 4283, "chni": 2410, "hnic": 4284, "ate,": 1914, "loc": 5539, "oca": 6621, " loc": 585, "loca": 5540, "ocal": 6623, "cal,": 2281, "-u": 1248, "u.": 9130, ".s": 1273, "u.s": 9131, ".s.": 1274, "u.s.": 9132, ".s. ": 1275, " age": 49, "agen": 1450, "genc": 3973, "enci": 3346, "ncie": 6092, "cies": 2430, "sul": 8632, "nsul": 6449, "sult": 8634, "ltin": 5632, "nni": 6356, "plan": 7369, "lann": 5251, "anni": 1692, "nnin": 6357, "hit": 4274, "re,": 7684, "rchi": 7650, "chit": 2408, "hite": 4275, "itec": 4997, "tect": 8776, "ectu": 3115, "ure,": 9391, "re, ": 7685, "nag": 6041, "gem": 3968, "mana": 5749, "anag": 1646, "nage": 6042, "agem": 1449, "geme": 3969, "oj": 6738, "je": 5091, "roj": 7991, "oje": 6739, "jec": 5094, "ct ": 2605, "proj": 7465, "roje": 7992, "ojec": 6740, "ject": 5095, "ect ": 3106, "set ": 8329, "env": 3404, "nvi": 6548, "iro": 4911, "onm": 6890, " env": 329, "envi": 3405, "nvir": 6549, "viro": 9628, "iron": 4912, "ronm": 8009, "onme": 6891, "enta": 3393, "n-b": 6007, "-bu": 1125, "bui": 2230, "uil": 9236, "ild": 4618, "ld ": 5289, "buil": 2231, "uild": 9237, "ild ": 4619, "cm": 2502, "ssin": 8545, "gy.": 4133, "ogy.": 6714, "gy. ": 4134, "ang": 1669, " ran": 798, "rang": 7593, "ange": 1671, "nge ": 6246, "cir": 2444, "rcu": 7658, "cui": 2632, " cir": 199, "circ": 2445, "ircu": 4889, "rcui": 7659, "cuit": 2633, " wa": 1041, "waf": 9667, "afe": 1429, " waf": 1042, "wafe": 9668, "afer": 1430, "lev": 5372, " lev": 566, "leve": 5374, "ka": 5123, "ack": 1345, "cka": 2458, "kag": 5125, " pac": 734, "pack": 7239, "acka": 1347, "ckag": 2459, "kagi": 5127, "oat": 6599, " coa": 211, "coat": 2513, "oati": 6600, "lope": 5560, "per,": 7310, "rip": 7869, "ipp": 4867, "ppi": 7429, "trip": 9042, "ippi": 4868, "ppin": 7430, "scr": 8269, "cru": 2593, "rub": 8147, "ubb": 9148, "bbe": 2068, " scr": 858, "rubb": 8148, "ubbe": 9149, "bber": 2070, "ber,": 2096, "ems.": 3329, "ntu": 6514, "entu": 3400, "ntur": 6517, "ure ": 9390, "plc": 7373, "lc ": 5284, " plc": 765, "plc ": 7374, "del": 2754, "eli": 3270, "liv": 5460, " del": 258, "deli": 2757, "eliv": 3274, "live": 5461, "apa": 1724, "pab": 7234, "capa": 2299, "apab": 1725, "pabi": 7235, "abil": 1303, "bili": 2115, "liti": 5458, "itie": 5009, "ties": 8903, " all": 65, "asi": 1869, "basi": 2059, "asis": 1872, "sis.": 8410, "uts": 9496, "outs": 7169, "utso": 9497, "tsou": 9065, "lli": 5492, "ian": 4407, "alli": 1573, "llia": 5493, "lian": 5404, "ianc": 4410, "cv": 2654, " da": 245, "ata": 1906, "ta ": 8697, " dat": 248, "data": 2707, "ata ": 1907, "nsp": 6438, "ansp": 1705, "spar": 8494, "pare": 7263, "aren": 1790, "rent": 7749, "cur": 2640, "cura": 2641, "urat": 9382, "veh": 9564, "ehi": 3223, " veh": 1024, "vehi": 9565, "ehic": 3224, "hicl": 4248, "icle": 4470, "cle ": 2485, "ado": 1405, "obe": 6607, "be ": 2076, " ado": 37, "obe ": 6608, "ter ": 8807, "llo": 5502, "low": 5580, "ow ": 7187, "allo": 1574, "llow": 5505, "low ": 5581, "user": 9441, "xpr": 9828, "expr": 3703, "xpre": 9829, "pres": 7449, "prin": 7455, "rint": 7863, "int ": 4791, "ia.": 4386, "edia": 3139, "dia.": 2810, "ia. ": 4387, "yp": 9930, " ty": 988, "typ": 9125, "ype": 9931, "pe ": 7280, " typ": 989, "utin": 9482, "nagi": 6043, "agr": 1463, "gre": 4093, "ee ": 3152, " agr": 51, "agre": 1465, "gree": 4096, "ree ": 7712, "stm": 8594, "estm": 3595, "stme": 8595, "st ": 8558, "ust ": 9453, "wn": 9749, " ow": 728, "own": 7195, "wns": 9754, " own": 729, "owns": 7198, "wns,": 9756, "ges": 3986, "ages": 1452, "ges,": 3988, "hb": 4186, "rh": 7815, "nei": 6175, "eig": 3229, "ghb": 4001, "hbo": 4187, "orh": 7003, "rho": 7817, " nei": 662, "neig": 6176, "eigh": 3230, "ighb": 4586, "ghbo": 4002, "hbor": 4188, "borh": 2181, "orho": 7004, "rhoo": 7818, "hood": 4302, "nity": 6312, "sh": 8344, " sh": 870, "sho": 8362, "hop": 4304, "opp": 6960, " sho": 874, "shop": 8364, "hopp": 4306, "oppi": 6962, " si": 875, "ngl": 6252, "gle": 4039, " sin": 880, "ingl": 4751, "ngle": 6254, "gle ": 4040, "ena": 3339, " ten": 950, "tena": 8800, "enan": 3342, "nant": 6058, "ant ": 1707, "rtie": 8120, "ocat": 6624, "cate": 2322, " tw": 985, "twe": 9108, "leas": 5321, " und": 997, "unde": 9326, "nder": 6129, "der ": 2776, "net ": 6202, "aj": 1520, "jo": 5102, "maj": 5738, "ajo": 1521, "jor": 5109, " maj": 606, "majo": 5739, "ajor": 1522, "jor ": 5110, "ail ": 1488, "ants": 1713, "nts.": 6513, "dc": 2716, "adc": 1382, "ncin": 6093, "hl": 4278, "pot": 7416, " pot": 772, "pote": 7419, "oten": 7109, "arg": 1793, "rge": 7800, "ete": 3614, " tar": 942, "targ": 8737, "arge": 1794, "rget": 7805, "gete": 3993, "eted": 3617, "dy ": 2967, "ody ": 6675, "nj": 6320, "ju": 5111, "uga": 9222, "gat": 3947, "gate": 3948, " (": 2, "(a": 1092, "s)": 8204, ") ": 1105, " (a": 4, "s) ": 8205, "ema": 3304, "tol": 8978, "hema": 4215, "emat": 3307, "atol": 1943, "tolo": 8979, "gica": 4016, "cer": 2365, "canc": 2294, "ncer": 6085, "cers": 2369, "lid": 5415, "soli": 8470, "olid": 6773, "lid ": 5416, " tu": 980, "tum": 9088, "umo": 9309, " tum": 982, "tumo": 9090, "umor": 9310, "mors": 5932, "sw": 8652, "tz": 9126, " sw": 928, "swi": 8656, "zer": 9975, "erl": 3497, "rla": 7911, " swi": 930, "swit": 8657, "erla": 3498, "rlan": 7912, "gd": 3952, " ki": 539, "ngd": 6243, "gdo": 3953, "om.": 6804, " kin": 541, "ingd": 4749, "ngdo": 6244, "gdom": 3954, "dom.": 2886, "om. ": 6805, "alo": 1580, "og ": 6697, "nalo": 6049, "alog": 1581, "log ": 5545, "evi": 3668, "devi": 2795, "evic": 3669, "gna": 4056, " sig": 877, "igna": 4597, "gnal": 4058, "ter,": 8808, "ial,": 4398, "rum": 8160, "inst": 4788, "trum": 9052, "rume": 8161, "umen": 9303, "ntat": 6475, "mil": 5858, " mil": 630, "mili": 5860, "lita": 5455, "itar": 4987, "ary,": 1845, "ace,": 1330, "ve,": 9557, "ive,": 5052, "ve, ": 9558, "-p": 1203, "rf": 7791, "-pe": 1206, "erf": 3481, "rfo": 7795, "-per": 1207, "perf": 7313, "erfo": 3482, "rfor": 7796, "rman": 7933, "manc": 5750, "-d": 1142, "s-": 8210, "-m": 1185, "dl": 2862, "-da": 1143, "dan": 2698, "iel": 4532, "els": 3291, "-mi": 1191, "ocur": 6645, "cure": 2642, "nspo": 6441, "spor": 8510, "tore": 9003, "ores": 7000, " mer": 623, "erch": 3472, "rcha": 7648, "hand": 4157, "ndis": 6136, "ises": 4939, "icu": 4485, "ltu": 5640, "agri": 1466, "gric": 4099, "ricu": 7834, "icul": 4486, "ultu": 9284, "ltur": 5641, "mmo": 5896, "ommo": 6828, "mmod": 5897, "modi": 5911, "odit": 6664, "see": 8293, "eds": 3144, "eeds": 3161, "orn": 7031, "rn,": 7950, "corn": 2559, "rn, ": 7951, "ilo": 4648, "ats": 1947, "oats": 6601, "ats,": 1949, "bar": 2053, "arl": 1809, "rle": 7917, "ley": 5379, "ey,": 3711, " bar": 126, "arle": 1810, "ey, ": 3712, "pea": 7285, "ean": 3029, " pea": 746, "wh": 9717, " wh": 1054, "whe": 9718, " whe": 1055, "whea": 9719, "uce ": 9163, "whi": 9722, "ich": 4455, " whi": 1056, "whic": 9723, "hich": 4246, "ich ": 4456, " hav": 446, "have": 4181, "ave ": 1981, "wo ": 9758, " two": 987, "two ": 9113, " end": 324, "end ": 3350, " or": 713, " or ": 714, " fe": 363, "fee": 3759, " fee": 365, "feed": 3761, "eed ": 3159, "ngr": 6257, " ing": 490, "ingr": 4752, "ngre": 6258, "gred": 4095, "edie": 3141, "dien": 2824, "dm": 2868, "adm": 1403, " adm": 36, "hu": 4344, " hu": 465, "hum": 4346, "uma": 9295, " hum": 466, "huma": 4347, "uman": 9297, "man ": 5748, "asm": 1877, "plas": 7370, "a-": 1289, "a-d": 1292, "-de": 1144, "ved": 9559, "ved ": 9560, "y-": 9852, "ty-": 9120, "y-c": 9855, "mpr": 5964, "ity-": 5036, "-com": 1137, "ompr": 6838, "mpro": 5967, "prom": 7466, "ised": 4938, " sea": 859, "seat": 8285, "ier": 4539, "lier": 5421, "ier ": 4540, "lete": 5366, "ete ": 3615, "ems ": 3327, "hei": 4207, "eir": 3237, "ir ": 4881, "thei": 8859, "heir": 4208, "eir ": 3238, "rio": 7864, "iou": 4842, "ario": 1803, "riou": 7868, "ious": 4843, "mpo": 5960, "nen": 6182, "ompo": 6837, "mpon": 5961, "pone": 7404, "onen": 6873, "nent": 6183, " van": 1019, "vans": 9544, "k-": 5120, " pi": 758, "pic": 7349, "ick": 4466, "-up": 1249, " pic": 759, "pick": 7350, "-up ": 1250, "uck": 9171, "ruck": 8150, "ucks": 9174, "cks ": 2474, "uv": 9510, "cles": 2489, "les.": 5360, "atic": 1933, " wid": 1059, "rce,": 7640, "yr": 9935, "ayr": 2017, "yro": 9936, "rol": 7995, "oll": 6778, "ll,": 5474, "payr": 7276, "ayro": 2018, "yrol": 9937, "roll": 7999, "ll, ": 5475, "x,": 9780, "tax": 8748, "ax,": 2002, "x, ": 9781, " tax": 944, "ax, ": 2003, "ben": 2092, "nef": 6172, "efi": 3189, "fit": 3823, " ben": 138, "bene": 2093, "enef": 3359, "nefi": 6173, "efit": 3192, "fits": 3826, "dmi": 2869, "admi": 1404, "dmin": 2870, "inis": 4762, "nist": 6304, "dap": 2699, "apt": 1747, " ada": 33, "adap": 1379, "dapt": 2700, "apti": 1748, "ptiv": 7488, "eld": 3259, " fie": 369, "fiel": 3802, "ield": 4533, "eld ": 3260, "by": 2249, " by": 173, "by ": 2250, " by ": 174, "nh": 6267, "inh": 4755, "ere": 3476, " inh": 491, "here": 4224, "eren": 3479, "sfo": 8342, "nsfo": 6419, "sfor": 8343, "osi": 7074, "nosi": 6386, "osis": 7075, "se.": 8279, "ase.": 1861, "se. ": 8280, "sk": 8423, "k,": 5118, "esk": 3573, "k, ": 5119, "desk": 2789, "pc": 7278, " pc": 744, " mu": 645, "tim": 8913, "ime": 4671, " mul": 646, "mult": 5987, "ltim": 5631, "time": 8914, "ols.": 6790, "o-d": 6570, "-di": 1146, "dim": 2830, "ens": 3381, "nsi": 6423, "-dim": 1147, "dime": 2831, "imen": 4673, "mens": 5813, "ensi": 3386, "nsio": 6426, "ee-": 3155, "e-d": 2985, "hree": 4328, "ree-": 7713, "ee-d": 3156, "e-di": 2986, "gn,": 4054, "ign,": 4596, "gn, ": 4055, "anic": 1677, "geo": 3978, "eog": 3410, "aph": 1731, "phi": 7338, " geo": 414, "geog": 3979, "eogr": 3411, "grap": 4091, "raph": 7599, "aphi": 1732, "phic": 7339, "map": 5754, " map": 610, "appi": 1741, "ua": 9133, "vis": 9630, "isu": 4977, "sua": 8619, "ual": 9134, " vis": 1034, "sual": 8620, "uali": 9136, "sold": 8469, "old ": 6759, "dea": 2734, " dea": 252, "deal": 2735, "eale": 3021, "aler": 1552, "lers": 5356, "dt": 2932, "sec": 8286, " sec": 860, "secu": 8289, "ecur": 3118, "curi": 2643, "urit": 9405, "rity": 7881, "udes": 9193, "mpe": 5950, " tem": 949, "temp": 8797, "empe": 3323, "mper": 5951, "ratu": 7614, "bur": 2235, "urg": 9400, " bur": 169, "burg": 2236, "flo": 3841, "loo": 5555, "od,": 6649, " flo": 382, "floo": 3842, "lood": 5556, "ood,": 6919, "od, ": 6650, "fir": 3817, "ire": 4892, " fir": 373, "fire": 3818, "ire ": 4893, "smo": 8452, "mok": 5914, "oke": 6742, "ke,": 5136, " smo": 893, "smok": 8453, "moke": 5915, "ke, ": 5137, " ale": 63, "ert ": 3531, "mon": 5919, "ito": 5020, " mon": 639, "moni": 5925, "onit": 6887, "nito": 6308, "itor": 5021, "orin": 7010, "cam": 2288, "ras": 7605, "as,": 1849, " cam": 179, "came": 2289, "mera": 5819, "eras": 3466, "ras,": 7606, "as, ": 1850, "emo": 3319, " rem": 811, "remo": 7742, "mote": 5938, "ote ": 7105, "wir": 9740, " wir": 1062, "wire": 9741, "irel": 4897, "rele": 7736, "eles": 3266, "less": 5362, "ngs": 6259, "gs,": 4109, "ings": 4753, "ngs,": 6261, "gs, ": 4110, " ena": 322, "enab": 3340, " vo": 1036, "voi": 9643, "oic": 6720, " voi": 1037, "voic": 9644, "oice": 6721, "ice,": 4451, "ta,": 8698, "ata,": 1908, "ta, ": 8699, "deo": 2767, "eo ": 3407, " vid": 1031, "ideo": 4506, "deo ": 2768, "tern": 8817, "erne": 3508, "rnet": 7959, " any": 83, "nfr": 6228, "ast": 1889, "infr": 4743, "nfra": 6229, "fras": 3873, "rast": 7608, "astr": 1896, "uctu": 9183, "ure.": 9393, "ngs ": 6260, "en ": 3331, "ren ": 7744, "pub": 7496, "ubl": 9152, " pub": 783, "publ": 7497, "ubli": 9153, "blic": 2152, " ut": 1013, "til": 8909, " uti": 1014, "util": 9481, "tili": 8911, "cit": 2449, "ty,": 9118, "rici": 7832, "icit": 4465, "city": 2451, "ity,": 5035, "ty, ": 9119, "ri ": 7820, " mis": 632, "isso": 4967, " il": 479, "ill": 4639, "ino": 4776, "noi": 6368, "ois": 6736, " ill": 480, "illi": 4643, "llin": 5496, "lino": 5443, "inoi": 4778, "nois": 6369, "ego": 3209, "gon": 4078, " pen": 748, "pens": 7303, "sav": 8245, " sav": 852, "savi": 8246, "avin": 1987, " eu": 339, " eur": 340, "ope ": 6942, "ca.": 2269, "ica.": 4443, "ca. ": 2270, "casu": 2319, "asua": 1899, "ualt": 9138, "eth": 3620, "ethe": 3622, "nds,": 6150, " spa": 905, "hun": 4348, "ung": 9331, " hun": 467, "ase ": 1858, " len": 564, "lend": 5343, "endi": 3353, "tel": 8788, "ante": 1710, "ntel": 6481, "cla": 2481, " cla": 203, "clas": 2483, "lass": 5264, "ass ": 1883, "rdi": 7672, "nar": 6059, " ord": 717, "ordi": 6992, "rdin": 7673, "dina": 2833, "nary": 6061, "sha": 8348, " sha": 871, "shar": 8350, "hare": 4164, "ares": 1791, "cif": 2431, "ecif": 3089, "cifi": 2432, "pur": 7504, "urp": 9416, "pos": 7411, "ose": 7071, " pur": 787, "purp": 7507, "urpo": 9417, "rpos": 8056, "pose": 7413, "ose ": 7072, "cq": 2572, "acq": 1355, "cqu": 2573, "uis": 9244, " acq": 28, "acqu": 1356, "cqui": 2574, "quis": 7532, "uisi": 9246, "isit": 4949, "siti": 8415, " liv": 580, "estr": 3597, "e-co": 2984, "erce": 3471, "est ": 3589, "gne": 4059, "igne": 4598, "gned": 4060, " red": 805, "redu": 7710, "cos": 2562, " cos": 222, "cost": 2564, "ost ": 7089, "dyn": 2971, "yna": 9917, "nam": 6052, "ami": 1620, " dyn": 297, "dyna": 2972, "ynam": 9918, "nami": 6054, "amic": 1621, "ndo": 6141, "ndom": 6142, "dom ": 2884, "mem": 5805, " mem": 621, "memo": 5807, "emor": 3321, "mory": 5934, "uit ": 9248, "rer": 7759, "urer": 9396, "rers": 7761, "urn": 9407, "n-i": 6016, "-in": 1175, "n-in": 6017, " die": 269, "een": 3166, "scre": 8270, "cree": 2581, "reen": 7714, "eeni": 3168, "lex": 5376, "ex ": 3687, "plex": 7379, "lex ": 5377, " log": 587, "co ": 2504, "ico ": 4473, " ea": 302, "eag": 3014, "agl": 1457, " eag": 303, "eagl": 3016, "agle": 1458, "mine": 5866, "gol": 4075, " gol": 423, "gold": 4076, "ucer": 9165, "cer ": 2366, "hw": 4352, "thw": 8878, "hwe": 4355, "wes": 9715, "rn ": 7949, "thwe": 8880, "hwes": 4356, "west": 9716, "este": 3592, "ster": 8583, "ern ": 3506, " q": 789, "c,": 2257, " qu": 790, "que": 7524, "bec": 2082, "c, ": 2258, " que": 792, "rthe": 8116, "hern": 4227, "mex": 5836, "exi": 3695, "xic": 9804, " mex": 626, "mexi": 5838, "exic": 3696, "xico": 9806, "inl": 4769, "vu": 9656, "una": 9317, "nav": 6067, "ivi": 5057, "vit": 9635, " act": 30, "ctiv": 2617, "tivi": 8946, "ivit": 5062, "viti": 9637, "pe,": 7281, "ope,": 6943, "pe, ": 7282, " lat": 557, "tin ": 8918, "ca,": 2265, "ica,": 4442, "ca, ": 2266, "xpa": 9819, "expa": 3699, "xpan": 9820, "ansi": 1702, "peri": 7314, "erit": 3495, "erg": 3483, "roun": 8030, "ound": 7143, "und ": 9324, "itt": 5027, "fitt": 3827, "itte": 5028, "en'": 3332, " men": 622, "men'": 5810, "en's": 3333, "wom": 9759, " wom": 1066, "wome": 9760, "omen": 6816, "ual ": 9135, "ppa": 7425, "el,": 3249, "appa": 1740, "ppar": 7426, "arel": 1789, "rel,": 7734, "el, ": 3250, "oot": 6936, "otw": 7127, "ar,": 1756, "foot": 3857, "ootw": 6937, "otwe": 7128, "twea": 9109, "ear,": 3036, "ar, ": 1757, "rw": 8183, "erw": 3543, "rwe": 8186, "oute": 7164, "terw": 8824, "erwe": 3544, "rwea": 8187, " j": 517, " je": 522, "jea": 5092, " jea": 523, "jean": 5093, "eans": 3032, "kh": 5165, "hak": 4150, "aki": 1529, "is,": 4924, "is, ": 4925, "t-": 8678, " t-": 934, "t-s": 8689, "-sh": 1224, "shi": 8357, "hir": 4269, "irt": 4916, " t-s": 935, "t-sh": 8690, "-shi": 1225, "shir": 8361, "hirt": 4271, "irts": 4917, "sim": 8394, "ila": 4615, " sim": 879, "simi": 8395, "imil": 4676, "mila": 5859, "ilar": 4616, "el.": 3252, "el. ": 3253, "smit": 8451, "mits": 5877, "ep ": 3423, "rca": 7636, "ap ": 1723, "erca": 3470, " nv": 683, "nv ": 6541, " nv ": 684, "d'": 2668, "d's": 2669, "d's ": 2670, " lar": 555, "larg": 5258, "rges": 7804, "aft ": 1437, "easi": 3049, "asin": 1871, "irm": 4907, "firm": 3819, "irm ": 4908, "fle": 3837, "lee": 5329, "eet": 3178, " fle": 380, "flee": 3838, "leet": 5331, "eet ": 3179, "lis": 5451, " lis": 578, "list": 5453, "iste": 4972, "sted": 8578, " y": 1074, "yo": 9923, " yo": 1076, "yor": 9927, " yor": 1077, "york": 9928, "toc": 8969, "ock": 6633, "ck ": 2455, "stoc": 8597, "tock": 8970, "ock ": 6634, "xch": 9789, "exch": 3691, "xcha": 9790, "hang": 4158, "r)": 7538, ").": 1108, "). ": 1109, " it ": 512, "dq": 2900, "adq": 1406, "dqu": 2901, "qua": 7520, "uar": 9141, "rte": 8108, "head": 4193, "eadq": 3011, "adqu": 1407, "dqua": 2902, "quar": 7523, "uart": 9143, "arte": 1833, "rter": 8109, " du": 293, "blin": 2154, "lin ": 5438, "fic": 3795, "offi": 6690, "ffic": 3785, "fice": 3798, "m,": 5709, "mst": 5982, "erd": 3475, "rda": 7668, "am,": 1607, "m, ": 5710, "am, ": 1608, "los": 5569, "os ": 7061, "los ": 5570, "gel": 3967, " ang": 79, "nno": 6358, "hann": 4160, "fort": 3865, "ort ": 7045, "aud": 1959, "dal": 2697, "le,": 5309, " lau": 558, "ale,": 1550, "le, ": 5310, "gap": 3938, "apo": 1736, "apor": 1738, "ore,": 6995, "i,": 4372, "ai,": 1475, "i, ": 4373, "ai, ": 1476, "u ": 9127, "dh": 2803, "hab": 4144, "habi": 4145, "tle ": 8954, "oul": 7141, "ulo": 9276, "ouse": 7156, "uir": 9241, "quir": 7531, "uire": 9242, "ires": 4899, "ewa": 3676, "wab": 9665, " ren": 812, "rene": 7747, "enew": 3362, "newa": 6211, "ewab": 3677, "wabl": 9666, "rgy": 7811, " ene": 325, "nerg": 6189, "ergy": 3486, "rgy ": 7812, "lant": 5253, " at": 102, "atl": 1938, "tla": 8951, " atl": 105, "atla": 1939, "las ": 5261, "pant": 7256, "gis": 4031, "ogis": 6703, "gist": 4032, "isti": 4973, "ry.": 8196, "try.": 9057, "ry. ": 8197, "eva": 3661, "va ": 9529, "eva ": 3662, "dar": 2701, " lid": 570, "lida": 5417, "idar": 4494, "dar ": 2702, " sen": 865, "sens": 8313, "nsin": 6425, "cep": 2363, "ept": 3441, "perc": 7312, "cept": 2364, "epti": 3443, "ptio": 7487, "rad": 7561, "igm": 4592, "gm ": 4048, "para": 7261, "radi": 7564, "ton": 8986, "ono": 6894, "mou": 5941, "uton": 9490, "tono": 8991, "onom": 6895, "nomo": 6376, "omou": 6835, "mous": 5944, " mac": 603, "mach": 5727, "hine": 4260, "nes.": 6197, "eral": 3464, "plem": 7377, "idu": 4523, "dua": 2934, "indi": 4722, "ndiv": 6138, "divi": 2861, "ivid": 5059, "vidu": 9612, "idua": 4524, "dual": 2935, "uals": 9137, "ja": 5085, " ja": 518, "an.": 1640, "an. ": 1641, "c'": 2252, "c's": 2253, "c's ": 2254, "cci": 2334, "cid": 2425, "acci": 1325, "ccid": 2335, "cide": 2427, "isa": 4928, "sab": 8218, "disa": 2843, "isab": 4929, "sabi": 8219, "xpe": 9821, "expe": 3700, "xpen": 9822, "ense": 3385, "nse,": 6414, "rt-": 8102, "t-t": 8692, "-te": 1236, "shor": 8365, "hort": 4310, "ort-": 7047, "-ter": 1238, "erm ": 3500, "kn": 5186, "sic": 8377, "mn": 5901, "mni": 5902, "inde": 4721, "tens": 8804, "nsiv": 6429, "are,": 1783, "ix": 5063, "xe": 9791, "fix": 3830, "ixe": 5067, "xed": 9794, "ed-": 3126, "d-b": 2675, " fix": 377, "fixe": 3831, "ixed": 5068, "xed-": 9796, "fit ": 3824, " den": 260, "lans": 5252, "ans.": 1699, "lds": 5302, " bui": 167, "ilds": 4623, "lds ": 5303, "-f": 1158, "le-": 5311, "e-f": 2987, "-fi": 1161, "irs": 4914, "rst": 8095, "ile-": 4627, "le-f": 5312, "firs": 3820, "irst": 4915, "rst ": 8096, "rce.": 7641, "ws": 9769, "ows": 7199, "ws ": 9770, "lows": 5584, "ows ": 7200, "purc": 7505, "urch": 9387, "chas": 2389, "hase": 4173, "ods ": 6667, "sil": 8390, "ilv": 4658, " sil": 878, "silv": 8393, "ilve": 4659, "lver": 5685, "ver ": 9583, "o.": 6577, "co.": 2507, "o. ": 6578, "ico.": 4475, "co. ": 2508, "ntl": 6500, "tly": 8957, "esen": 3564, "sent": 8314, "entl": 3396, "ntly": 6501, "tly ": 8958, "wns ": 9755, "uci": 9169, "duci": 2939, "ucin": 9170, "la ": 5225, "arr": 1824, "rri": 8066, "lla": 5478, "arri": 1826, "rill": 7853, "illa": 4641, "lla ": 5479, "ne,": 6159, "ine,": 4727, "ne, ": 6160, "san": 8235, " san": 849, "san ": 8236, "arti": 1835, "rtin": 8123, "nca": 6076, "tad": 8708, "da ": 2688, " enc": 323, "cant": 2297, "anta": 1709, "ada ": 1376, " gu": 433, "gui": 4122, "rra": 8060, " gui": 436, "arra": 1825, "rra ": 8061, "del ": 2755, "oro": 7034, "ro ": 7968, " tor": 969, "toro": 9005, "sant": 8238, "nta ": 6466, "gc": 3951, "acto": 1363, "ors,": 7042, "bine": 2119, "ay ": 2007, "spr": 8513, "pra": 7439, "ray": 7621, "aye": 2012, "yer": 9891, " spr": 909, "ayer": 2013, "yers": 9892, "enu": 3401, "nus": 6536, "nus ": 6537, "no-": 6366, "o-o": 6573, "-on": 1197, "o-on": 6574, "-onc": 1198, "iliz": 4638, "kp": 5192, "ckp": 2472, "poi": 7398, "poin": 7399, "oint": 6735, "yne": 9920, "ergi": 3485, "gent": 3977, " cur": 236, "utc": 9466, "outc": 7162, "utco": 9467, "tcom": 8758, "come": 2537, "mes.": 5827, "reu": 7781, "eus": 3655, "eus ": 3656, "nw": 6552, "nwa": 6553, "way": 9686, " gre": 429, "way ": 9687, "lf": 5381, "olf": 6769, "lf ": 5382, "golf": 4077, "olf ": 6770, " cou": 224, "untr": 9354, "ntry": 6509, "lub": 5648, "bs ": 2215, " clu": 207, "club": 2499, "fai": 3739, "irw": 4919, "rwa": 8184, "ays": 2019, "ys,": 9940, " fai": 358, "airw": 1517, "irwa": 4920, "rway": 8185, "ways": 9688, "ays,": 2021, "ys, ": 9941, "bh": 2107, "hou": 4319, "hous": 4320, "oas": 6597, "oast": 6598, "asti": 1895, " bev": 140, "beve": 2106, "vera": 9586, "erag": 3463, "aq": 1753, "uat": 9144, "uati": 9145, "nges": 6249, "pro ": 7459, "assi": 1887, "ssis": 8547, "sist": 8411, "ist ": 4970, "ala": 1539, "amo": 1627, "mos": 5935, " ala": 60, "an-": 1639, "nadi": 6040, "dian": 2814, "n-ba": 6008, "lore": 5567, "ects": 3114, "urk": 9406, " tur": 983, "turk": 9098, "gio": 4029, "ios": 4836, "bol": 2170, "tabo": 8703, "abol": 1310, "boli": 2171, "olis": 6776, "cusi": 2648, "oly": 6798, "sis,": 8409, "acid": 1340, "cid ": 2426, "kc": 5131, " bl": 146, "blo": 2156, "ckc": 2460, "kch": 5132, " blo": 149, "bloc": 2157, "lock": 5541, "ockc": 6636, "ckch": 2461, "kcha": 5133, "ain ": 1499, " asi": 98, "sic ": 8378, "hip": 4264, "ips": 4870, "ps.": 7475, "chip": 2406, "hips": 4268, "ips.": 4873, "ps. ": 7476, "sia": 8369, "asia": 1870, "sia.": 8372, "nc ": 6070, "rna": 7952, "ly-": 5694, "-ma": 1186, "erna": 3507, "rnal": 7954, "nall": 6048, "lly-": 5515, "-man": 1187, "st.": 8562, "ust.": 9455, "st. ": 8563, "ge-": 3959, "e-b": 2981, "bac": 2037, "cke": 2462, "ked": 5138, "age-": 1446, "ge-b": 3960, "e-ba": 2982, "-bac": 1120, "back": 2039, "acke": 1348, "cked": 2463, "ked ": 5139, "avo": 1990, "vor": 9649, "avor": 1991, "g-": 3921, "lon": 5552, "ong": 6880, "ng-": 6236, "g-t": 3922, " lon": 588, "long": 5554, "ong-": 6882, "ng-t": 6238, "g-te": 3923, "lde": 5295, "olde": 6761, "lder": 5296, "etu": 3642, "rns": 7967, "retu": 7780, "etur": 3643, "turn": 9099, "bst": 2224, "tan": 8728, "stan": 8572, "tant": 8733, "yi": 9899, "thea": 8858, "ox": 7204, "xy": 9844, "yg": 9894, " ox": 730, "oxy": 7210, "xyg": 9845, "yge": 9895, " oxy": 732, "oxyg": 7211, "xyge": 9846, "ygen": 9896, "gen ": 3971, "hee": 4204, "eel": 3163, "elc": 3258, "whee": 9720, "heel": 4205, "hair": 4149, "airs": 1516, "lk": 5468, "wal": 9671, "alk": 1566, "ker": 5143, " wal": 1043, "kers": 5146, " sl": 887, "sle": 8436, "eep": 3169, " sle": 888, "slee": 8437, "leep": 5330, "eep ": 3170, "py": 7514, "apy": 1750, "py ": 7515, "rapy": 7601, "apy ": 1751, "bed": 2083, " bed": 134, "eds.": 3146, "bs,": 2216, "labs": 5230, "abs,": 1317, "bs, ": 2217, " sk": 884, "ski": 8427, "kil": 5170, " ski": 885, "skil": 8428, "kill": 5171, "ille": 4642, "lled": 5487, "nur": 6534, "urs": 9421, " nur": 681, "nurs": 6535, "ursi": 9423, "rsin": 8090, "eit": 3241, "it,": 4982, "reit": 7731, "eit,": 3244, "it, ": 4983, "re-": 7686, "-fo": 1162, "are-": 1784, "-foc": 1163, "suc": 8623, "uch": 9167, " suc": 919, "such": 8624, "uch ": 9168, "ice ": 4450, "ildi": 4621, "nio": 6297, "seni": 8312, "enio": 3372, "nior": 6299, "ior ": 4833, " hou": 464, "ousi": 7157, "amp": 1629, "pus": 7508, "camp": 2290, "mpus": 5972, "eit ": 3242, ".a": 1260, ".ai": 1263, "oy": 7212, "loy": 5585, "oyi": 7219, "yin": 9900, "depl": 2773, "eplo": 3434, "ploy": 7388, "ying": 9901, "ai ": 1473, " ai ": 53, "fly": 3847, "iref": 4896, "fly ": 3848, "tif": 8904, "ntif": 6492, "tifi": 8905, "ific": 4565, "fic ": 3796, "rly": 7920, " ear": 304, "earl": 3041, "arly": 1811, "rly ": 7921, "det": 2791, " det": 264, "dete": 2792, "etec": 3616, "bt": 2227, "urol": 9413, "rolo": 8000, "itat": 4989, "nali": 6047, "gnif": 4063, "fica": 3797, "imp": 4684, " imp": 484, "impr": 4686, "ovin": 7184, "rnat": 7955, "p,": 7229, "up,": 9361, "p, ": 7230, "oup,": 7147, "up, ": 9362, "org": 7001, "rga": 7798, "gan": 3935, " org": 719, "orga": 7002, "rgan": 7799, "gani": 3937, "aniz": 1682, "rvin": 8180, "itu": 5030, "tut": 9101, "nsti": 6446, "stit": 8592, "titu": 8941, "itut": 5032, "tuti": 9102, "aig": 1484, "ig ": 4575, "tir": 8928, "reti": 7777, "etir": 3626, "tire": 8929, "irem": 4898, "mia": 5843, "ao ": 1721, "omob": 6833, "sal": 8230, " sal": 847, "sale": 8233, "ales": 1553, "gua": 4118, "tee": 8780, "ee,": 3153, " gua": 434, "guar": 4119, "uara": 9142, "aran": 1764, "rant": 7596, "ntee": 6479, "ee, ": 3154, "aim": 1496, " aim": 57, "med ": 5800, "ipa": 4853, "pal": 7247, "rinc": 7859, "inci": 4714, "ncip": 6094, "cipa": 2443, "ipal": 4854, "pall": 7251, " at ": 103, "de-": 2731, " rid": 822, "ride": 7838, "ide-": 4501, "hari": 4166, "rob": 7972, "obo": 6615, " rob": 831, "robo": 7974, "-g": 1167, "ava": 1977, "nt-": 6460, "t-g": 8683, " ava": 114, "vant": 9545, "gard": 3940, "arde": 1776, "brin": 2205, "-ce": 1131, "ntri": 6507, "ser ": 8319, "xper": 9823, "rien": 7842, "os,": 7062, "inos": 4779, "os, ": 7063, "ech ": 3083, "sib": 8374, "visi": 9632, "isib": 4946, "sibl": 8376, "nals": 6050, "nto": 6502, "into": 4797, "nto ": 6503, "-r": 1215, "ne-": 6161, "e-r": 2992, "-re": 1216, "ine-": 4728, "e-re": 2993, "read": 7693, "w-": 9662, "ow-": 7188, "dos": 2895, " low": 590, "low-": 5582, " ora": 715, "terf": 8814, "eron": 3512, "ron ": 8006, "toi": 8975, "oim": 6730, "utoi": 9488, "toim": 8976, "oimm": 6731, "tiou": 8925, "nos ": 6385, "rfl": 7794, "et,": 3602, "et, ": 3603, "rta": 8103, "orta": 7048, "rtat": 8107, " art": 95, "eris": 3494, "-ch": 1132, "ip ": 4848, "hip ": 4265, "rco": 7654, "onn": 6892, "nec": 6165, "terc": 8812, "erco": 3474, "rcon": 7655, "conn": 2544, "onne": 6893, "nnec": 6351, "nect": 6166, "tua": 9079, "tell": 8791, "llec": 5486, "tual": 9080, "ty.": 9121, "ty. ": 9122, "umb": 9298, " num": 680, "umbe": 9299, "mber": 5776, "ber ": 2095, "eo,": 3408, "deo,": 2769, "eo, ": 3409, "one ": 6871, "sors": 8482, "ris ": 7873, "yb": 9870, "hyb": 4359, "ybr": 9875, " hyb": 469, "hybr": 4360, "ybri": 9876, "ift": 4569, "ift ": 4570, "ncr": 6103, "rew": 7786, "ewe": 3680, "wed": 9700, "ncre": 6104, "air ": 1511, "dro": 2913, " dro": 290, "dron": 2916, "rone": 8007, "aini": 1505, "both": 2184, "oth ": 7112, "rsh": 8086, "rshi": 8087, "ship": 8360, "obu": 6619, "i-": 4374, "ai-": 1477, "-dr": 1149, " ai-": 55, "-dri": 1150, "iven": 5054, "ven ": 9577, "enso": 3387, "nsor": 6437, "urv": 9424, "vei": 9566, "eil": 3232, " sur": 926, "surv": 8648, "urve": 9425, "rvei": 8174, "veil": 9567, "eill": 3233, "llan": 5482, "lanc": 5246, "even": 3666, "ige": 4580, "elli": 3279, "llig": 5495, "lige": 5429, "igen": 4581, "rge ": 7801, "-cr": 1139, "ion-": 4823, "-cri": 1140, "rtm": 8125, " apa": 85, "apar": 1727, "artm": 1836, "rtme": 8126, "f-": 3722, "elf": 3268, "lf-": 5385, "f-a": 3723, "-ad": 1112, "self": 8302, "elf-": 3269, "lf-a": 5386, "f-ad": 3724, "-adm": 1113, "tere": 8813, "ered": 3478, "f-m": 3727, "lf-m": 5387, "f-ma": 3728, "hica": 4245, "ifa": 4556, "fam": 3741, "ltif": 5630, "fami": 3742, "amil": 1622, "mily": 5862, "bia": 2109, " col": 217, "colu": 2532, "olum": 6794, "lumb": 5665, "umbi": 9300, "mbia": 5778, "hur": 4350, "ur ": 9377, "arth": 1834, "gal": 3931, "lag": 5236, "ghe": 4003, " gal": 405, "alla": 1571, "llag": 5481, " co.": 210, "rok": 7993, "ge,": 3957, "brok": 2209, "roke": 7994, "oker": 6744, "kera": 5145, "age,": 1445, "ge, ": 3958, "isk": 4950, "sk ": 8424, " ris": 825, "risk": 7875, "isk ": 4951, " em": 317, "oye": 7216, "yee": 9889, " emp": 320, "empl": 3324, "mplo": 5959, "loye": 5587, "oyee": 7217, "yee ": 9890, "abr": 1313, "pal ": 7248, "vity": 9638, "neg": 6174, "tiat": 8886, "fur": 3908, "rni": 7960, "ish": 4940, " fur": 400, "furn": 3909, "urni": 9409, "rnis": 7963, "nish": 6303, "ishi": 4943, "shin": 8358, "hing": 4261, "ama": 1609, "mai": 5735, "ccel": 2332, "cele": 2356, "eler": 3265, " ov": 726, " ove": 727, "net,": 6203, "angi": 1672, "n-d": 6011, " on-": 703, "on-d": 6852, "n-de": 6012, "-dem": 1145, "dema": 2759, "eman": 3305, "mand": 5751, "eami": 3027, "amin": 1623, "ming": 5867, "ols ": 6788, "lp": 5590, "hel": 4209, "elp": 3286, "lp ": 5591, " hel": 450, "help": 4212, "elp ": 3287, "peo": 7305, "eop": 3413, "opl": 6955, " peo": 749, "peop": 7306, "eopl": 3414, "ople": 6956, "act ": 1360, "eac": 3005, "reac": 7692, "each": 3006, "out ": 7161, "xis": 9810, " exi": 349, "exis": 3697, "xist": 9811, "bia ": 2110, "lop ": 5559, "hyp": 4365, "oxi": 7208, "xia": 9803, " hyp": 472, "(h": 1097, " (h": 8, "dn": 2871, "kid": 5167, "idn": 4516, "dne": 2872, "ney": 6216, " kid": 540, "kidn": 5168, "idne": 4517, "dney": 2873, "ney ": 6217, "ful": 3903, "ull": 9269, " ful": 398, "full": 3904, "ully": 9273, "ede": 3133, "rede": 7708, "edev": 3135, "nch": 6087, " anc": 78, "anch": 1650, "chor": 2414, "hore": 4308, "ored": 6998, "groc": 4103, "ocer": 6627, "cery": 2371, "ue-": 9200, "e-o": 2991, "-or": 1199, "lue-": 5658, "-ori": 1200, "whit": 9725, "ite ": 4994, "lai": 5238, "plai": 7368, "lain": 5239, "ains": 1508, "ins,": 4784, "k.": 5121, "rk.": 7895, "k. ": 5122, "ork.": 7015, "rk. ": 7896, "fts": 3896, " ast": 101, "aste": 1894, "tera": 8811, "or-": 6976, "r-b": 7543, "r-ba": 7544, "oys": 7222, "ys ": 9939, "loys": 5589, "oys ": 7223, "rms": 7942, "orms": 7029, "rms ": 7943, "ilt": 4653, "lt ": 5611, "abs ": 1316, "sr": 8519, "isr": 4962, "sra": 8520, "rae": 7566, "ael": 1420, " isr": 509, "isra": 4963, "srae": 8521, "rael": 7567, "ael.": 1421, "emar": 3306, "ialt": 4403, "rgy,": 7813, "con ": 2540, "itr": 5022, "reo": 7750, "eor": 3415, " vit": 1035, "reor": 7751, "etin": 3625, "tina": 8919, "inal": 4704, " cat": 184, "cata": 2321, "surg": 8647, "urge": 9401, "rger": 7803, "gery": 3985, "tac": 8704, "ntac": 6468, "tact": 8707, "lens": 5346, "nses": 6416, "efr": 3193, " ref": 806, "refr": 7718, "ald": 1547, "eals": 3023, "dry": 2919, " dry": 292, "dry ": 2920, "alle": 1572, "rgic": 7807, "jun": 5114, "tis,": 8932, " oc": 688, "ecto": 3112, "hes": 4229, "ches": 2398, "hes ": 4230, "deg": 2751, "urod": 9412, "rode": 7980, "odeg": 6657, "dege": 2752, "egen": 3199, "ifo": 4567, " cal": 178, "cali": 2285, "alif": 1560, "lifo": 5426, "ifor": 4568, "forn": 3864, "orni": 7033, "rnia": 7961, "nia.": 6277, "leg": 5333, "lleg": 5488, "osy": 7096, "osys": 7097, "nced": 6082, " mot": 642, "otio": 7117, "ontr": 6910, "ntro": 6508, "trol": 9047, " ali": 64, "alig": 1561, "lign": 5431, "ear ": 3035, "gner": 4061, "ners": 6191, "intr": 4798, "scan": 8251, "nner": 6354, "ntis": 6497, "tist": 8936, "try,": 9056, "aid": 1481, "ded": 2743, "ter-": 8809, "ided": 4504, "ded ": 2744, " pra": 776, "prac": 7440, "ione": 4826, "oner": 6874, "gnm": 4066, "ignm": 4600, "gnme": 4067, "gns ": 4071, "uo": 9356, "nuo": 6532, "uou": 9357, "onti": 6909, "ntin": 6494, "tinu": 8922, "inuo": 4803, "nuou": 6533, "uous": 9358, "ams ": 1633, "ndl": 6139, "dle": 2863, " han": 442, "andl": 1661, "dle ": 2864, "oor": 6932, "ht,": 4336, "ght,": 4008, "ht, ": 4337, "vig": 9616, " nav": 658, "navi": 6068, "avig": 1986, "viga": 9617, "igat": 4579, "lexi": 5378, "weal": 9693, "ht ": 4335, "ght ": 4007, "ask": 1874, "ska": 8425, "ka ": 5124, "aska": 1875, "gers": 3984, "tip": 8926, "ltip": 5633, "tipl": 8927, "iple": 4863, "dest": 2790, "fre": 3874, " fre": 392, "frei": 3876, "reig": 7729, " mai": 605, "mail": 5736, "rme": 7936, "erme": 3502, "mes ": 5825, "als.": 1588, "nia ": 6275, "epr": 3439, "epre": 3440, "iab": 4388, "bet": 2101, "diab": 2811, "iabe": 4389, "abet": 1301, "bete": 2102, "etes": 3619, "lka": 5470, "mi ": 5842, "ud-": 9188, "oud-": 7136, "ud-b": 9189, "d-ba": 2676, "ardi": 1777, "cco": 2337, "acco": 1326, "ccou": 2338, "unt ": 9350, "vici": 9608, "alls": 1575, "-l": 1181, "y-l": 9858, "-li": 1184, "liab": 5402, "iabi": 4390, "priv": 7457, "vate": 9552, "meo": 5815, "eow": 3420, "wne": 9751, "omeo": 6817, "meow": 5816, "eown": 3421, "owne": 7197, "wner": 9753, "ndep": 6128, "nnu": 6362, "nui": 6527, " ann": 81, "annu": 1693, "nnui": 6363, "nuit": 6528, "egio": 3205, "gion": 4030, "aces": 1332, "saf": 8224, " saf": 846, "safe": 8225, "icas": 4447, "cas,": 2314, "idd": 4496, "ddl": 2724, "midd": 5854, "iddl": 4497, "ddle": 2725, " eas": 305, "east": 3051, "ast,": 1891, "ndia": 6132, "dia,": 2809, "afr": 1434, "fri": 3879, " afr": 45, "afri": 1435, "fric": 3880, "sia ": 8370, "paci": 7238, "acif": 1341, "lm": 5517, "alm": 1578, "lmo": 5522, "nty": 6518, "lmon": 5523, "mont": 5926, " shi": 873, "hipp": 4267, "tun": 9091, "gst": 4113, "sten": 8582, "te.": 8770, "conc": 2541, "once": 6862, "ncen": 6083, "ate.": 1916, "te. ": 8771, "ln": 5525, "yl": 9902, "nyl": 6563, "yla": 9903, "y-s": 9861, "rly-": 7922, "sect": 8288, "ors ": 7041, "llis": 5498, "ison": 4956, "son ": 8474, "diu": 2857, "ediu": 3143, "dium": 2858, "ium ": 5040, "vy": 9657, "eav": 3064, "avy": 1992, "vy-": 9658, "y-d": 9856, "-du": 1151, "dut": 2948, "uty": 9504, "heav": 4198, "eavy": 3065, "avy-": 1993, "duty": 2949, "uty ": 9505, "y-t": 9862, "-ta": 1235, "ctic": 2614, " u.": 991, " u.s": 992, "d-p": 2679, "-pr": 1210, "pul": 7500, "uls": 9277, "-pro": 1211, "nsit": 6428, "sit ": 8413, " alt": 68, "alti": 1593, "tid": 8898, "tide": 8899, " ob": 685, "bes": 2100, "sity": 8417, "nas": 6062, "ash": 1865, "sh,": 8346, "ash,": 1867, "sh, ": 8347, "gma": 4049, "igma": 4593, "in-": 4694, "n-p": 6018, "-po": 1208, "ain-": 1501, "in-p": 4695, "-pow": 1209, "were": 9712, "tok": 8977, "ken": 5142, "trad": 9026, "tero": 8818, "ero ": 3511, "dst": 2929, "mids": 5855, "idst": 4522, "dstr": 2931, " gat": 409, "gath": 3949, "athe": 1927, "heri": 4225, "mpre": 5965, "wat": 9681, " wat": 1046, "wate": 9683, "arw": 1842, "pip": 7358, "ipe": 4856, "pel": 7295, " pip": 762, "pipe": 7359, "ipel": 4858, "peli": 7296, "elin": 3273, "fet": 3775, "afet": 1431, "fety": 3776, "fab": 3733, " fab": 356, "fabr": 3734, "abri": 1314, "bric": 2202, " fla": 379, "ane": 1664, "nel": 6177, " pan": 738, "pane": 7254, "anel": 1666, "nel ": 6178, "iq": 4876, "liq": 5449, "iqu": 4877, " liq": 577, "liqu": 5450, "iqui": 4879, "quid": 7529, "uid ": 9232, "cry": 2596, "rys": 8202, " cry": 232, "ryst": 8203, "stal": 8571, "isp": 4958, "spl": 8506, "lay": 5277, "disp": 2849, "ispl": 4960, "spla": 8507, "play": 7372, "lays": 5280, "ola": 6755, "sola": 8468, "olar": 6757, "ovo": 7185, "olt": 6791, "lta": 5614, "aic": 1479, "volt": 9646, "olta": 6792, "aic ": 1480, " cel": 187, "mba": 5774, "ella": 3277, "igh ": 4584, "def": 2748, " def": 256, "defi": 2750, "efin": 3191, "fini": 3815, "init": 4763, "mage": 5732, " sti": 913, "stil": 8590, "till": 8912, "ill ": 4640, "mc": 5785, "amc": 1612, "mco": 5787, "cord": 2557, "-e": 1152, "o-e": 6571, "-en": 1155, "o-en": 6572, "-ena": 1156, "bled": 2147, "arda": 1775, "labl": 5228, "ans ": 1697, "kl": 5181, "rkl": 7904, "mc ": 5786, "inm": 4771, "tert": 8822, "erta": 3532, "rtai": 8105, "ainm": 1507, "inme": 4772, "hib": 4241, "ibi": 4426, "hibi": 4242, "ibit": 4428, "mov": 5945, " mov": 644, "movi": 5947, "ovie": 7183, " ti": 958, " tic": 959, "tick": 8895, "icke": 4468, "cket": 2466, "cor ": 2555, "rigi": 7851, "cart": 2312, "rton": 8131, "osu": 7094, "clos": 2495, "losu": 5572, "osur": 7095, "cro ": 2588, "md": 5788, "d)": 2671, "amd": 1613, "crop": 2590, "opro": 6966, "edd": 3131, "dde": 2720, "embe": 3309, "bedd": 2084, "dded": 2721, "pse": 7477, " gra": 428, "ird": 4890, "rd-": 7666, "-pa": 1204, " thi": 955, "thir": 8867, "hird": 4270, "ird-": 4891, "rd-p": 7667, "d-pa": 2680, "-par": 1205, "arty": 1839, "fou": 3866, "ndr": 6145, " fou": 389, "foun": 3867, "undr": 9327, "ndri": 6146, "ek": 3245, "amet": 1619, "mete": 5833, "wer,": 9711, "moto": 5940, "otor": 7122, "loor": 5557, "oor ": 6933, "ek ": 3246, "mg": 5840, "evo": 3672, "lln": 5500, "lne": 5526, "llne": 5501, "lnes": 5527, "inn": 4773, "ova": 7171, " inn": 494, "inno": 4775, "nnov": 6359, "nova": 6391, "ovat": 7173, "llu": 5510, "lul": 5662, "ellu": 3283, "llul": 5511, "lula": 5663, " 4": 18, "4 ": 1284, "ryl": 8198, "aryl": 1846, "ryla": 8199, "ylan": 9904, "iri": 4902, "uiri": 9243, "irin": 4904, "reno": 7748, "enov": 3379, "-fa": 1159, "gle-": 4041, "e-fa": 2988, "-fam": 1160, "ko": 5188, "dee": 2746, " dee": 255, "deep": 2747, "prob": 7460, "bly": 2161, "mbly": 5783, "bly ": 2162, "reli": 7737, "elia": 3271, "cte": 2610, "char": 2388, "acte": 1361, "cter": 2612, "my": 5997, "yx": 9956, "yx ": 9957, "myo": 5999, "trop": 9049, "roph": 8018, "scl": 8260, "scle": 8261, "cler": 2488, "lero": 5355, "rosi": 8022, "empo": 3325, "mpor": 5962, "orar": 6983, "rary": 7604, "fing": 3814, "rse": 8080, "urse": 9422, "rse ": 8081, "rses": 8084, "llie": 5494, "gho": 4004, "ugho": 9225, "ghou": 4005, "hout": 4321, "tud": 9083, " amp": 75, "ampl": 1631, "mpli": 5958, "tude": 9084, "f-s": 3729, "-se": 1222, "lf-s": 5388, "-ser": 1223, "erst": 3529, "rsta": 8097, "tand": 8730, "nver": 6546, "rsio": 8091, "incr": 4717, "wt": 9775, "row": 8037, "owt": 7202, "wth": 9776, "grow": 4105, "rowt": 8041, "owth": 7203, "rev": 7782, "nue": 6522, " rev": 818, "reve": 7783, "venu": 9581, "enue": 3402, "riu": 7882, "ius": 5043, "mpri": 5966, "rius": 7883, "ius ": 5044, "-cap": 1129, "apac": 1726, "acit": 1344, "obot": 6616, "boti": 2185, "otic": 7116, "sat": 8241, " sat": 850, "sate": 8242, "atel": 1919, "llit": 5499, "lite": 5456, "fy": 3914, "ify": 4572, "fy ": 3915, "plif": 7384, "lify": 5427, "ify ": 4573, "rp ": 8048, "orp ": 7036, "esc": 3556, "eres": 3480, "resc": 7766, "esco": 3558, "sco ": 8263, "cog": 2520, "oge": 6698, " cog": 215, "coge": 2521, "ogen": 6699, "ydro": 9886, "ic,": 4438, "ic, ": 4439, "nea": 6164, "gor": 4081, "gori": 4082, "mr": 5974, "ze ": 9968, "ize ": 5074, "td ": 8760, "ltd ": 5618, " cem": 188, "gg": 3994, "agg": 1453, "ggr": 3995, "ega": 3195, " agg": 50, "aggr": 1454, "ggre": 3996, "greg": 4097, "rega": 7720, "egat": 3197, "ady": 1417, "dy-": 2970, "mix": 5881, "ix,": 5065, "eady": 3013, "ady-": 1418, "ix, ": 5066, "asp": 1881, "sph": 8500, "hal": 4152, "lt,": 5612, " asp": 99, "spha": 8501, "lt, ": 5613, "cret": 2582, "rete": 7776, "ofi": 6692, "seal": 8282, "alan": 1542, "nts,": 6512, "weat": 9696, "eath": 3057, "nd.": 6117, "and.": 1656, "nd. ": 6118, "upe": 9364, "supe": 8641, "uper": 9365, "doi": 2879, " doi": 281, "doin": 2880, "oing": 6734, "msc": 5981, "rgy.": 7814, "rol ": 7996, "erte": 3533, " vol": 1038, "tow": 9013, " tow": 972, "towe": 9014, "dca": 2717, "oadc": 6586, "adca": 1383, "dcas": 2718, "cast": 2318, "ast ": 1890, "wers": 9714, "enn": 3373, "enna": 3374, " sit": 882, "ti-": 8883, "lti-": 5628, "-ten": 1237, "erse": 3525, "pag": 7241, " pag": 735, "ar.": 1758, "ar. ": 1759, "amen": 1616, "ntum": 6516, "tum ": 9089, "clim": 2492, "lima": 5435, "imat": 4668, "at,": 1903, "eat,": 3055, "at, ": 1904, "fus": 3910, " fus": 401, "fusi": 3911, "usio": 9449, "lua": 5646, " eva": 342, "alua": 1596, "luat": 5647, "tiz": 8947, "zen": 9973, " cit": 200, "citi": 2450, "itiz": 5014, "tize": 8949, "izen": 5077, "zen ": 9974, "aem": 1422, "meti": 5834, "eere": 3173, " bac": 121, "who": 9726, " who": 1057, "whol": 9728, "hole": 4294, "ole ": 6765, "ars ": 1828, "hen": 4218, "then": 8861, "hen ": 4219, " be ": 132, "mak": 5740, "ke ": 5135, " mak": 607, "make": 5741, "ake ": 1526, "iall": 4401, "och": 6629, "oche": 6630, "uels": 9205, "els ": 3292, "ca ": 2264, "ica ": 4441, "vil": 9618, "vil ": 9619, "ab ": 1297, " sab": 845, " de ": 251, ".v": 1276, "v.": 9526, " c.": 175, ".v.": 1277, "v. ": 9527, ".v. ": 1278, " tel": 948, "tele": 8790, "leco": 5324, "xed ": 9795, "me,": 5790, "me, ": 5791, "tic,": 8892, "-dis": 1148, "ista": 4971, "tanc": 8729, "db": 2713, "adb": 1380, "dba": 2714, "oadb": 6585, "adba": 1381, "dban": 2715, "band": 2051, ".c": 1267, "azo": 2028, ".co": 1268, "om,": 6802, " ama": 71, ".com": 1269, "com,": 2534, "om, ": 6803, "aile": 1491, "iler": 4628, "oks": 6749, "ooks": 6925, "oks,": 6750, "mus": 5992, " mus": 648, "musi": 5994, "usic": 9447, "sic,": 8379, "rous": 8032, "zon ": 9991, "b-": 2032, "dir": 2840, " dir": 274, "dire": 2841, "irec": 4894, "rect": 7703, " ari": 91, "aris": 1804, "rist": 7876, "sta ": 8565, "rks": 7906, "orks": 7019, "rks,": 7908, " rou": 836, "rout": 8033, "outi": 7166, " ai,": 54, "us,": 9429, "us, ": 9430, "rks ": 7907, "tch": 8752, " fit": 375, "itch": 4991, "tch ": 8753, "ct-": 2608, "-to": 1244, "to-": 8967, "t-to": 8693, "-to-": 1245, "swe": 8653, " spo": 908, "rtsw": 8139, "swea": 8654, " kn": 545, "kni": 5187, "oven": 7178, "eec": 3157, "ece": 3080, " swe": 929, "en,": 3334, "men,": 5811, "en, ": 3335, "kids": 5169, "ids.": 4521, "gi ": 4012, "rtal": 8106, "vem": 9574, "rove": 8035, "ovem": 7177, "veme": 9575, "xo": 9815, "xon": 9816, "bios": 2129, "iosc": 4837, "dy,": 2968, "ody,": 6676, "dy, ": 2969, "in.": 4696, "ain.": 1502, "in. ": 4697, "ges ": 3987, "acin": 1343, "carr": 2310, "rrie": 8067, "rier": 7843, "iers": 4541, "dvi": 2955, "advi": 1416, "dvis": 2957, "ensa": 3384, "nsat": 6411, "sati": 8243, "egic": 3203, "tal,": 8718, "rce ": 7639, " smi": 892, "mith": 5876, "phe": 7336, " atm": 106, "osph": 7083, "pher": 7337, "gen,": 3972, " nit": 672, "nitr": 6309, "roge": 7987, "rgo": 7809, " arg": 90, "argo": 1796, "um,": 9288, "heli": 4211, "ium,": 5041, "um, ": 9289, "urf": 9398, "rfa": 7792, "cta": 2609, "surf": 8646, "urfa": 9399, "rfac": 7793, "yu": 9953, "pol": 7400, " pol": 769, "poly": 7402, "etha": 3621, "than": 8854, "epo": 3435, "sins": 8403, "elds": 3261, "ety,": 3649, "ly,": 5692, "ly, ": 5693, "cus ": 2646, "nda": 6119, "anda": 1657, "ndat": 6122, "dif": 2826, "iff": 4562, " dif": 270, "diff": 2827, "iffe": 4563, "fere": 3766, "opic": 6953, "derm": 2781, "obs": 6617, " obs": 687, "obst": 6618, "ulm": 9274, " pul": 785, "pulm": 7501, "ulmo": 9275, "mona": 5921, "onar": 6859, "unm": 9340, " unm": 1000, "unme": 9341, "nmet": 6345, "met ": 5831, "ed.": 3129, " nee": 661, "need": 6170, "ed. ": 3130, "mph": 5952, "axi": 2005, "at-": 1905, "t-r": 8688, "ibb": 4422, "ribb": 7825, "bon ": 2173, "cab": 2271, "le.": 5315, " cab": 177, "cabl": 2273, "le. ": 5316, "lep": 5349, "eph": 3429, "elep": 3264, "leph": 5350, "epho": 3430, "one,": 6872, "elev": 3267, "levi": 5375, "evis": 3671, "isio": 4948, "ner,": 6187, "per ": 7309, "xt-": 9832, "-ge": 1168, "xt-g": 9833, "t-ge": 8684, "-gen": 1169, "owi": 7192, "win": 9736, "rowi": 8039, "owin": 7193, "wing": 9739, "puti": 7511, "c)": 2255, "c) ": 2256, "rtif": 8121, "fici": 3799, "icia": 4461, "i)": 4370, "(ai": 1093, "ai)": 1474, " (ai": 5, "(ai)": 1094, "tali": 8721, "alit": 1564, " hot": 463, "hote": 4317, "otel": 7108, "tels": 8792, "els,": 3293, "gue": 4120, " gue": 435, "gues": 4121, "uest": 9214, "oom": 6929, "oms": 6840, "room": 8014, "ooms": 6931, "oms,": 6841, "esor": 3575, "sort": 8483, "rts.": 8138, "pell": 7297, "pou": 7420, "lo ": 5532, "ollo": 6783, "llo ": 5503, "ld,": 5290, "ld, ": 5291, "id,": 4489, "id, ": 4490, "inco": 4716, "ncom": 6100, "lov": 5578, " siz": 883, " id": 476, " ide": 477, "idea": 4503, "nd-": 6115, "d-t": 2683, "end-": 3351, "nd-t": 6116, "d-to": 2684, "to-e": 8968, "-end": 1157, "ze,": 9969, "mone": 5923, "onet": 6876, "etiz": 3627, "ize,": 5075, "ze, ": 9970, "row ": 8038, " aud": 109, "audi": 1960, "udie": 9195, "ian ": 4408, "sh ": 8345, "cash": 2316, "ash ": 1866, "urb": 9383, "rbi": 7628, "turb": 9095, "she": 8351, "blis": 2155, "lish": 5452, "ishe": 4942, "sher": 8355, "hers": 4228, "face": 3736, " bil": 143, "bill": 2116, "onsi": 6901, "iv ": 5046, "tiv ": 8944, "rdw": 7681, "dwa": 2959, "hard": 4163, "ardw": 1780, "rdwa": 7682, "dwar": 2960, "rif": 7846, "trif": 9041, "rifi": 7847, "ity.": 5037, "lg": 5393, "alg": 1554, "lgo": 5395, "uin": 9238, "algo": 1555, "rest": 7773, "herm": 4226, "rmal": 7932, "mal ": 5744, "-w": 1256, "was": 9678, "te-": 8768, " was": 1045, "wast": 9680, "ques": 7527, "ate-": 1915, "te-s": 8769, "uct ": 9179, "as.": 1852, "gas.": 3944, "as. ": 1853, "rich": 7831, "et-": 3604, "t-l": 8685, "-le": 1182, "-lea": 1183, "his": 4272, " his": 456, "isto": 4974, "stab": 8566, "ws,": 9771, "flow": 3844, "ows,": 7201, "ws, ": 9772, " dem": 259, "emon": 3320, "iabl": 4391, "wth ": 9777, "pros": 7468, "ospe": 7082, "pect": 7289, "tea": 8772, " tea": 946, "team": 8773, "eams": 3028, "dor": 2893, "orad": 6980, "rado": 7565, "nchi": 6089, "chis": 2407, "hise": 4273, "fas": 3747, "st-": 8561, "t-f": 8681, " fas": 362, "fast": 3749, "ast-": 1892, "t-fo": 8682, "tau": 8746, "stau": 8575, "taur": 8747, "aura": 1967, "ant.": 1708, "gran": 4090, "uth": 9475, "sout": 8489, "outh": 7165, "uth ": 9476, "bea": 2077, "cari": 2309, "arib": 1799, "ibbe": 4423, "bbea": 2069, "bean": 2079, "ely": 3296, "gs.": 4111, "gs. ": 4112, "orr": 7039, "corr": 2561, "iner": 4734, "imb": 4669, "bala": 2046, "orte": 7049, "nnel": 6353, "nels": 6179, "rece": 7699, "lia ": 5399, "roi": 7989, "gast": 3946, "stro": 8607, "troi": 9046, "roin": 7990, "ntes": 6484, "xa": 9782, "exa": 3688, "ria ": 7822, "uiti": 9250, "pand": 7253, "aw": 1994, "raw": 7619, "aw ": 1995, " raw": 801, "raw ": 7620, "lur": 5670, "allu": 1576, "llur": 5512, "lurg": 5672, "urgi": 9402, " ste": 912, "stee": 8579, "teel": 8781, "eel ": 3164, "maki": 5742, "akin": 1530, "dit,": 2854, "seco": 8287, "econ": 3098, "onda": 6866, "ndar": 6121, "rha": 7816, "utd": 9468, "tdo": 8763, "doo": 2891, "outd": 7163, "utdo": 9469, "tdoo": 8764, "door": 2892, "rnit": 7964, "nitu": 6311, "itur": 5031, "livi": 5462, "ivin": 5061, " din": 272, "dini": 2835, "ebt": 3074, "bt ": 2228, "debt": 2738, "ebt ": 3075, "-rel": 1217, "ecte": 3109, "cted": 2611, "bel": 2089, " doo": 284, "bell": 2090, "lls,": 5509, "dli": 2866, " arm": 92, "arm ": 1813, "olle": 6781, "rot": 8025, "oco": 6639, "prot": 7469, "roto": 8027, "otoc": 7120, "ocol": 6640, "em,": 3300, "tem,": 8795, "em, ": 3301, "aram": 1763, "rama": 7585, "ark ": 1806, "rm,": 7925, "nifo": 6291, "orm,": 7024, "rm, ": 7926, "hm": 4281, "esh": 3566, "fres": 3878, "resh": 7768, "nr": 6400, "nro": 6401, "lean": 5319, "oom ": 6930, "niv": 6315, "univ": 9338, "nive": 6316, "rsit": 8092, "ums": 9313, "adiu": 1402, "ums,": 9314, "ck,": 2456, "rock": 7978, "ock,": 6635, "ck, ": 2457, "cut": 2650, "cuti": 2652, "ioth": 4841, "eds ": 3145, "e-m": 2989, "-me": 1189, "-med": 1190, "diat": 2816, "rmo": 7941, "armo": 1816, "mour": 5943, "our ": 7150, " arr": 94, "rray": 8062, "ray ": 7622, "cki": 2467, "rack": 7559, "acki": 1349, "ckin": 2468, "arv": 1840, "inas": 4706, "o-p": 6575, "tei": 8786, "rote": 8026, "otei": 7107, "tein": 8787, "ein ": 3235, " deg": 257, "degr": 2753, "grad": 4087, "rada": 7562, "dati": 2709, "rro": 8070, "rrow": 8072, "ead ": 3009, "sile": 8391, "sele": 8301, "wr": 9766, "rwr": 8188, "wri": 9767, "derw": 2784, "erwr": 3545, "rwri": 8189, "writ": 9768, "rite": 7878, "iter": 5000, "tn": 8962, "rtn": 8127, "tne": 8963, "artn": 1837, "rtne": 8128, "tner": 8964, "simp": 8396, "impl": 4685, "lifi": 5425, "adit": 1401, "rel ": 7733, "itn": 5018, "fitn": 3825, "itne": 5019, "tnes": 8965, "gea": 3963, " gea": 412, "gear": 3964, "asa": 1854, "ana,": 1644, "lps": 5594, "elps": 3288, "lps ": 5595, "orc": 6985, " orc": 716, "orch": 6987, "rk,": 7893, "ork,": 7014, "rk, ": 7894, "dai": 2694, " dai": 246, "dail": 2695, "aily": 1495, "tas": 8739, "sks": 8430, " tas": 943, "asks": 1876, "ss-": 8528, "-fu": 1166, " cro": 230, "oss-": 7087, " ini": 492, "itia": 5007, "ves.": 9596, "ana ": 1643, "soc": 8461, "oci": 6631, "asso": 1888, "ssoc": 8552, "soci": 8462, "ocia": 6632, "ciat": 2424, "banc": 2050, "idw": 4525, "dwe": 2961, "midw": 5856, "idwe": 4526, "dwes": 2962, "een ": 3167, "bay": 2065, " bay": 130, "wis": 9742, " wis": 1063, "wisc": 9743, "scon": 8264, "nk ": 6324, "ank ": 1684, "ull ": 9270, "ois,": 6737, "sot": 8485, "ota": 7100, "inne": 4774, "nnes": 6355, "iana": 4409, "mich": 5848, "ichi": 4459, "chig": 2403, "igan": 4577, "hio": 4262, "io,": 4811, "io, ": 4812, "tex": 8836, "xas": 9783, " tex": 953, "texa": 8838, "exas": 3689, "xas.": 9785, "no ": 6365, "ino ": 4777, "ld.": 5293, "ld. ": 5294, "ml": 5886, " n.": 652, "n.v": 6025, " n.v": 653, "n.v.": 6026, "ips ": 4871, "tho": 8872, "phy": 7346, "itho": 5005, "ade": 1388, "emy": 3330, "my ": 5998, "cade": 2275, "adem": 1391, "oors": 6934, "rine": 7860, "f,": 3720, "lf,": 5383, "f, ": 3721, "lf, ": 5384, "hunt": 4349, "unti": 9353, "fis": 3821, " fis": 374, "fish": 3822, "ecr": 3102, "recr": 7702, "ecre": 3103, "lei": 5336, "eis": 3239, " lei": 563, "leis": 5337, "eisu": 3240, "isur": 4978, "pes": 7319, "pes ": 7320, "enr": 3380, "nuc": 6520, "ucl": 9175, " nuc": 679, "nucl": 6521, "ucle": 9176, "uan": 9139, " qua": 791, "quan": 7522, "uant": 9140, "antu": 1714, "spen": 8498, "pen ": 7299, "inc ": 4710, "cly": 2501, "licl": 5413, "icly": 4471, "rade": 7563, "aded": 1390, "esto": 3596, "tti": 9072, "etti": 3641, "ttin": 9073, " rat": 800, "oym": 7220, "loym": 5588, "oyme": 7221, "oma ": 6807, "cer.": 2368, "ot ": 7099, "hot ": 4316, "cold": 2529, " rol": 833, " she": 872, "shee": 8353, "heet": 4206, " lig": 572, "aug": 1961, "ile,": 4626, "ssib": 8543, "ctl": 2618, "ectl": 3111, "ctly": 2619, "day": 2711, "day ": 2712, "o.,": 6579, "co.,": 2509, "o., ": 6580, "ckl": 2469, "kle": 5183, "ckle": 2470, "ley ": 5380, "sty": 8616, "tyl": 9123, "yle": 9905, "ifes": 4561, "fest": 3774, "esty": 3599, "styl": 8617, "tyle": 9124, "yle ": 9906, "ale ": 1549, "tel ": 8789, "ffl": 3786, "ffli": 3787, "wei": 9703, "ixi": 5069, "xin": 9809, "-we": 1257, " wei": 1051, "chat": 2390, "alp": 1583, "lph": 5592, "ec ": 3078, " alp": 66, "alph": 1584, "lpha": 5593, "phat": 7335, " spi": 907, "spin": 8503, "pine": 7356, "sq": 8517, "retr": 7778, "tta": 9068, "atta": 1951, "lion": 5446, "ral,": 7579, "enal": 3341, "rmi": 7938, "ormi": 7028, "rmit": 7940, "lico": 5414, "int,": 4792, "10": 1281, "0 ": 1279, "rewa": 7787, "wall": 9672, "all,": 1569, "plia": 7381, "ti ": 8882, "niu": 6313, " tit": 963, "tita": 8938, "itan": 4986, "tani": 8731, "aniu": 1681, "nium": 6314, "nle": 6336, "ainl": 1506, "inle": 4770, "nles": 6337, "eel,": 3165, "kel": 5140, "el-": 3251, "l-b": 5214, "l-ba": 5215, "lloy": 5506, "oys,": 7224, "rall": 7581, " z": 1078, " zi": 1080, " nio": 671, "grai": 4088, "en-": 3336, "utt": 9498, " cut": 238, "cutt": 2653, "utti": 9500, "oy ": 7213, "loy ": 5586, "rey": 7790, " duc": 294, "tile": 8910, " ir": 504, " iro": 505, "ltr": 5636, " fil": 371, "filt": 3810, "iltr": 4655, "ltra": 5637, " lu": 595, "ube": 9150, " lub": 596, "ir,": 4882, "air,": 1512, "ir, ": 4883, " cra": 227, " ven": 1025, "ilat": 4617, "lte": 5620, "lter": 5621, "-h": 1171, "n-h": 6014, "hwa": 4353, "on-h": 6853, "ighw": 4588, "hway": 4354, "ff-": 3779, "off-": 6688, "keti": 5155, "hti": 4340, "ghti": 4009, "htin": 4341, "coc": 2514, " coc": 212, "cock": 2516, "cabi": 2272, "abin": 1304, "xte": 9834, "exte": 3706, "xter": 9836, "erio": 3493, "rior": 7866, "iors": 4835, "jet": 5098, " jet": 525, "ogo": 6705, "logo": 5547, "hant": 4161, "y-p": 9859, "y-pr": 9860, " sul": 922, "tlan": 8952, "ntic": 6490, "unio": 9335, "nion": 6298, "anks": 1688, "ecki": 3094, "unts": 9355, "inia": 4758, "rivi": 7887, "move": 5946, "ove ": 7175, "usl": 9450, "sly": 8439, "ousl": 7158, "usly": 9451, "sly ": 8440, "ks.": 5199, "cks.": 2476, "ks. ": 5200, "ipt": 4874, "ubsc": 9157, "bscr": 2219, "scri": 8271, "crip": 2585, "ript": 7871, "ipti": 4875, "nue ": 6523, " rad": 796, "adio": 1400, "dio ": 2837, "ped": 7290, " ped": 747, "pedi": 7292, "py,": 7516, "apy,": 1752, "py, ": 7517, "adu": 1411, " adu": 38, "adul": 1412, "dult": 2944, "ult ": 9279, "nma": 6342, "mann": 5752, "harg": 4165, "ong ": 6881, "ssil": 8544, "alon": 1582, "bay ": 2066, "vad": 9534, " ur": 1004, " uro": 1007, " mix": 634, "mixe": 5882, "ntar": 6473, "xid": 9807, " oxi": 731, "oxid": 7209, "xide": 9808, "ii": 4605, "-v": 1255, " ii": 478, "set-": 8330, "box": 2190, "oxe": 7206, "xes": 9799, " box": 159, "boxe": 2192, "oxes": 7207, "xes,": 9800, "mig": 5857, "igr": 4603, "ct,": 2606, "ect,": 3107, "ct, ": 2607, "ssiv": 8548, "thes": 8863, "ese ": 3561, "ply": 7391, "pply": 7434, "-cha": 1133, "aro": 1821, " aro": 93, "arou": 1822, "rld.": 7915, "anto": 1712, "ntor": 6504, "eage": 3015, "sili": 8392, "ilic": 4634, "enat": 3343, "gas,": 3943, "rals": 7582, "ma,": 5719, "ma, ": 5720, "cis": 2446, "prec": 7444, "reci": 7700, "ecis": 3091, "cisi": 2448, "sev": 8333, " sev": 869, "seve": 8334, "vere": 9587, "ere ": 3477, "asta": 1893, "vai": 9536, "avai": 1979, "aila": 1490, "cn": 2503, " cn": 209, "pop": 7407, "tew": 8834, "stew": 8584, "tewa": 8835, "ewat": 3679, "lves": 5686, "ersh": 3526, " ax": 116, "iph": 4859, "iphe": 4860, "rege": 7721, " tis": 962, "tiss": 8935, "sue ": 8626, "memb": 5806, "rane": 7592, "xl": 9814, "ivel": 5053, "vs": 9654, "ver,": 9584, "axa": 2004, "lta ": 5615, "aint": 1509, "olor": 6786, "lor ": 5565, "atc": 1911, "matc": 5765, "atch": 1912, "dec": 2739, " dec": 254, "deco": 2742, "ecor": 3099, "cora": 2556, "or.": 6977, "tor.": 9000, "or. ": 6978, "witc": 9745, "tche": 8754, "hes,": 4231, "aze": 2025, "eca": 3079, "area": 1786, "eas,": 3046, "iov": 4844, "rdio": 7674, "diov": 2839, "iova": 4845, "ovas": 7172, "lar,": 5256, "pir": 7360, "ira": 4884, "spir": 8504, "pira": 7361, "irat": 4885, "ory,": 7059, "ol,": 6753, "rol,": 7997, "ol, ": 6754, "hesi": 4233, "esia": 3569, "sia,": 8371, "ld-": 5292, "sam": 8234, " sam": 848, "eas ": 3045, "ech,": 3084, "barr": 2055, "ick ": 4467, "cop": 2552, "ppe": 7427, " cop": 220, "copp": 2553, "oppe": 6961, "pper": 7428, "irp": 4913, "rpl": 8053, "airp": 1515, "lane": 5248, "anes": 1667, "fen": 3762, "defe": 2749, "efen": 3184, "fens": 3763, "lib": 5406, "iba": 4421, "bab": 2036, "aba": 1298, "alib": 1558, "il,": 4611, "ail,": 1489, "il, ": 4612, "depo": 2774, "epos": 3437, "posi": 7414, "osit": 7076, "sits": 8416, " cer": 190, "cert": 2370, "oz": 7225, "z ": 9960, "len ": 5342, "ham": 4154, "lto": 5634, "ilto": 4654, "lton": 5635, "ton ": 8987, "civ": 2452, " civ": 201, "civi": 2453, "ivil": 5060, " ec": 306, " eco": 307, "cono": 2545, "mode": 5910, "odel": 6658, "imu": 4689, "simu": 8397, "imul": 4690, "ske": 8426, "kem": 5141, "bras": 2197, " s.": 841, "s.a": 8212, ".a.": 1261, " s.a": 842, "s.a.": 8213, ".a. ": 1262, "pet": 7322, " pet": 752, "petr": 7325, "etro": 3632, "troc": 9045, "roch": 7977, " et": 337, "thy": 8881, " eth": 338, "ylen": 9907, "lene": 5344, "ene,": 3358, "opy": 6972, "nz": 6564, "uen": 9206, "luen": 5659, " x": 1071, " but": 171, "iene": 4537, "tene": 8802, " dic": 268, "open": 6946, "pent": 7304, "mt": 5983, "tb": 8750, "apr": 1744, "tam": 8726, "capr": 2301, " amm": 74, "mmon": 5898, "ulf": 9261, "sulf": 8633, "exe": 3692, "xen": 9797, " cyc": 242, "pht": 7344, "iny": 4808, "viny": 9623, "inyl": 4809, "lori": 5568, "orid": 7007, "pv": 7512, " bal": 124, "ods,": 6668, "seh": 8297, "eho": 3225, "useh": 9440, "seho": 8298, "ehol": 3226, "kf": 5160, "okf": 6745, "kfi": 5161, "broo": 2210, "rook": 8013, "ookf": 6923, "okfi": 6746, "kfie": 5162, "irm.": 4909, " fam": 359, "ilie": 4635, "ees": 3176, "hil": 4253, "phil": 7340, "hili": 4256, "lia,": 5400, "acu": 1366, " acu": 31, "acut": 1367, "cute": 2651, "ute ": 9471, "mes,": 5826, "reh": 7724, " reh": 808, "reha": 7725, "ehab": 3219, "' ": 1086, "doc": 2876, "oct": 6642, " doc": 280, "kb": 5130, "bla": 2140, " bla": 147, "blac": 2141, "lack": 5233, "earn": 3042, "arni": 1820, "rnin": 7962, "cyb": 2661, "ybe": 9873, " cyb": 241, "cybe": 2662, "yber": 9874, "bers": 2098, "rsec": 8083, "vac": 9530, "acy": 1369, "acy ": 1370, "ryp": 8200, "ypt": 9933, "cryp": 2597, "rypt": 8201, "big": 2111, " big": 142, "bear": 2080, "ear.": 3037, "r'": 7535, "er'": 3451, "r's": 7536, "er's": 3452, "r's ": 7537, "deci": 2740, "eali": 3022, "alis": 1563, "anco": 1652, "nco ": 6098, "rgen": 7802, "ina ": 4699, "ll-": 5476, "ull-": 9271, "ll-s": 5477, "l-se": 5218, "onso": 6902, "mut": 5995, " mut": 649, "mutu": 5996, "utua": 9502, "brad": 2195, "ades": 1394, "ttr": 9076, " att": 107, "attr": 1953, "ttra": 9077, "acts": 1364, "zil ": 9982, "cay": 2328, "yma": 9912, "bio ": 2123, " bon": 154, "bone": 2175, " lum": 597, "bar ": 2054, " usi": 1012, "repa": 7753, "epai": 3425, "pair": 7246, " bet": 139, "eta ": 3608, "bion": 2127, "ial-": 4399, "lose": 5571, "osed": 7073, "sed-": 8292, "thm": 8871, "ya": 9866, "aya": 2010, "ya ": 9867, "aya ": 2011, "aria": 1798, "esa": 3554, "oles": 6767, "lesa": 5361, "esal": 3555, "ey.": 3713, "ey. ": 3714, "bath": 2061, "ath ": 1926, "frag": 3871, "ragr": 7572, "agra": 1464, " gi": 416, "gif": 4021, " gif": 417, "gift": 4022, "ifts": 4571, "fts,": 3897, "uy": 9516, "buy": 2245, "uy ": 9517, " buy": 172, "buy ": 2246, "eb ": 3067, "web ": 9698, "ite.": 4996, "pre-": 7442, "res.": 7765, "bru": 2213, "run": 8162, "uns": 9347, "nsw": 6452, "wic": 9730, " bru": 165, "law": 5275, "awa": 1996, "dela": 2756, "elaw": 3257, "lawa": 5276, "awar": 1998, "rd,": 7664, "ard,": 1774, "rd, ": 7665, "inb": 4708, "rols": 8001, "mab": 5723, "suma": 8636, "umab": 9296, "mabl": 5724, "ss.": 8530, "ess.": 3581, "ss. ": 8531, "pee": 7293, "spee": 8497, "peed": 7294, "p-": 7231, " ip": 502, "ip-": 4851, "-br": 1124, "e-a": 2980, "adde": 1385, "-ho": 1173, "ocr": 6641, "yst ": 9946, "l-m": 5216, "-mo": 1192, "all-": 1570, "zy": 9994, "zyme": 9995, "ays ": 2020, "role": 7998, "athw": 1931, "thwa": 8879, "yw": 9954, "ed,": 3124, "red,": 7707, "ed, ": 3125, "ip,": 4849, "hip,": 4266, "ip, ": 4850, "rba": 7626, "urba": 9384, "rban": 7627, "ban ": 2049, "ack ": 1346, "iam": 4404, "diam": 2813, "iamo": 4405, "amon": 1628, "mond": 5922, "ond ": 6865, "fine": 3813, "ton,": 8988, "enh": 3367, "nha": 6268, " enh": 327, "enha": 3368, "nhan": 6269, "hanc": 4156, "cer,": 2367, "romo": 8004, "prev": 7450, "bloo": 2158, "uted": 9472, "drog": 2915, " emi": 319, "emis": 3317, " bea": 133, "beam": 2078, " dn": 277, " dna": 278, " edi": 310, "itin": 5010, "mas": 5761, "ssa": 8532, "chu": 2417, "hus": 4351, " mas": 612, "mass": 5762, "assa": 1885, "ssac": 8533, "sach": 8222, "achu": 1338, "chus": 2418, "uset": 9443, "ento": 3397, "ean ": 3030, "argi": 1795, "nkl": 6331, "viso": 9633, "sory": 8484, "sep": 8315, " sep": 866, "sepa": 8316, "epar": 3426, "arat": 1765, " mun": 647, "nici": 6283, "icip": 4464, "ome,": 6814, "oney": 6877, "alte": 1591, "edg": 3136, "edge": 3137, "utte": 9499, "rtab": 8104, " ul": 993, "aso": 1878, " ult": 994, "ultr": 9282, "tras": 9030, "raso": 7607, "soun": 8487, "kes": 5148, "akes": 1528, "kes ": 5149, "yon": 9924, "yone": 9926, "t-b": 8679, "t-ba": 8680, "l'": 5208, "l's": 5209, "l's ": 5210, "nim": 6293, " ani": 80, "anim": 1679, "nima": 6294, "imal": 4666, "eed,": 3160, "cook": 2550, "ours": 7153, "bak": 2042, " bak": 123, "bake": 2043, "aker": 1527, "kery": 5147, "onf": 6878, "conf": 2543, "onfe": 6879, "nery": 6193, "iry": 4921, "dair": 2696, "airy": 1518, "meat": 5794, "nfa": 6219, "fan": 3743, "infa": 4738, "nfan": 6220, "fant": 3744, "fore": 3862, "orei": 6999, "eign": 3231, "nge,": 6247, "fut": 3912, " fut": 402, "futu": 3913, "utur": 9503, "ured": 9394, "ade ": 1389, "xec": 9792, " exe": 347, "exec": 3693, "xecu": 9793, "ecut": 3119, "xu": 9841, "lab ": 5227, "nome": 6374, "nva": 6542, "on-i": 6854, "-inv": 1178, "inva": 4805, "nvas": 6543, "vasi": 9550, "asiv": 1873, "ce-": 2345, "nce-": 6080, "miz": 5883, "imiz": 4679, "mize": 5885, "osts": 7093, "urr": 9418, "curr": 2644, "urre": 9419, "rren": 8065, "ycle": 9881, "nhi": 6270, "inhi": 4756, "nhib": 6271, "seri": 8320, "dom,": 2885, " mal": 608, "shel": 8354, "f-st": 3730, "perm": 7315, " war": 1044, "areh": 1788, "reho": 7727, "ehou": 3227, "ogs": 6708, "atal": 1910, "talo": 8723, "logs": 5548, "ogs,": 6709, "els.": 3294, "rup": 8164, "ads": 1408, "spre": 8514, "prea": 7443, "eads": 3012, "ads,": 1410, " vin": 1032, "wn ": 9750, "own ": 7196, "usc": 9433, "usch": 9434, "sch ": 8254, "al.": 1537, "al. ": 1538, "hth": 4338, "lmi": 5520, " oph": 710, "opht": 6950, "phth": 7345, "htha": 4339, "thal": 8853, "halm": 4153, "almi": 1579, "lmic": 5521, "brig": 2204, "ble,": 2146, " ore": 718, "oal": 6588, "coal": 2511, "oal,": 6590, "pota": 7418, "otas": 7102, "tash": 8741, "old,": 6760, "ply ": 7392, "revo": 7785, "evol": 3673, "volu": 9647, "u,": 9128, "u, ": 9129, "ews": 3683, "news": 6212, "ews,": 3685, "gati": 3950, "hod": 4289, "n-ho": 6015, " ly": 600, "lym": 5699, " rh": 819, "heu": 4236, "eum": 3651, "oid": 6722, "oid ": 6723, "hri": 4329, "thri": 8876, "ohn": 6716, "oria": 7006, "li ": 5397, "ibil": 4427, " cov": 225, "eos": 3417, "gam": 3932, " gam": 406, "game": 3933, "ames": 1618, "-of": 1195, "tomi": 8984, "ped ": 7291, "unn": 9342, "essu": 3587, "ssur": 8557, " poi": 768, "ints": 4799, "far": 3745, "farm": 3746, "arms": 1817, "ypto": 9934, "ptoc": 7491, "tocu": 8971, "renc": 7746, "ees ": 3177, "bj": 2136, "ub ": 9147, "lub ": 5649, "b.": 2033, "b. ": 2034, "toy": 9015, " toy": 973, "toys": 9016, "scap": 8252, "lr": 5596, "jew": 5100, "elr": 3289, "lry": 5598, " jew": 526, "jewe": 5101, "ewel": 3682, "welr": 9707, "elry": 3290, "lry,": 5600, "mel": 5804, " mel": 620, "ello": 3281, "lon ": 5553, "uu": 9507, "uum": 9508, "uum ": 9509, "kk": 5180, "kt": 5203, "pto ": 7490, "ker ": 5144, "dril": 2910, "terv": 8823, "rven": 8175, "mmi": 5892, "ommi": 6827, "mmis": 5894, "nsh": 6420, " ons": 707, "onsh": 6900, "nsho": 6422, "mpos": 5963, "eser": 3565, "ky": 5207, "sky": 8431, "acks": 1350, "l-t": 5220, "-ti": 1242, "eal-": 3020, "al-t": 1536, "l-ti": 5221, "-tim": 1243, "ime ": 4672, "bse": 2220, "rva": 8170, "erva": 3539, "rvat": 8171, " io": 499, " iot": 501, "ku": 5204, "ted,": 8779, "lom": 5550, "mb ": 5773, "lomb": 5551, "ens ": 3382, "llar": 5483, "ndli": 6140, "dlin": 2867, "cku": 2478, "kup": 5205, "acku": 1351, "ckup": 2479, "ilde": 4620, "meb": 5795, "ebu": 3076, "omeb": 6815, "mebu": 5796, "omin": 6823, "wned": 9752, " ble": 148, "blen": 2148, "uyi": 9520, "buyi": 2248, "uyin": 9521, "uye": 9518, "buye": 2247, "uyer": 9519, "rmin": 7939, "ien ": 4535, "ges.": 3989, "bul": 2232, " bul": 168, "bull": 2234, "ulli": 9272, "ish ": 4941, "umbl": 9301, "mble": 5781, "mee": 5802, " mee": 619, "meet": 5803, " fri": 393, "frie": 3881, "ends": 3355, "ip.": 4852, "nshi": 6421, "iom": 4818, "ea ": 3001, "biom": 2126, "iome": 4819, "itm": 5017, "host": 4314, "whil": 9724, "hile": 4255, "lowe": 5583, "weri": 9713, "olds": 6763, "olli": 6782, "rer ": 7760, "odo": 6665, "don": 2890, " ort": 721, "rtho": 8117, " lic": 569, "lice": 5411, "icen": 4453, "cens": 2361, " my": 650, "rime": 7857, "hear": 4195, "eart": 3043, " aid": 56, "aids": 1483, "gan ": 3936, "nspl": 6440, "oads": 6587, "dsto": 2930, "ston": 8600, "tone": 8989, "le-t": 5314, "e-te": 2997, " sco": 857, "ntec": 6477, "unot": 9346, "noth": 6389, " bor": 156, "ud,": 9186, "oud,": 7135, "ud, ": 9187, "file": 3806, "coll": 2530, "olla": 6780, "llab": 5480, "ox ": 7205, "box ": 2191, "erac": 3462, "stu": 8614, " stu": 916, "stud": 8615, "uden": 9192, " bel": 137, "prem": 7447, "remi": 7741, "erb": 3468, "ass,": 1884, "lty,": 5644, "dse": 2927, "odse": 6670, "dser": 2928, " roc": 832, "cof": 2518, " cof": 214, "coff": 2519, "ffee": 3782, "fee ": 3760, "bars": 2056, "ars.": 1830, "ea,": 3002, "ea, ": 3003, "lks": 5471, "shak": 8349, "hake": 4151, "nks,": 6334, "prep": 7448, "ared": 1787, "ump": 9311, "mpt": 5970, "uk": 9253, "ists": 4976, "osco": 7070, "scop": 8265, "vels": 9572, "iant": 4412, "lry ": 5599, "kla": 5182, "how": 4322, "show": 8366, "brow": 2212, "rown": 8040, "bros": 2211, "and-": 1655, "lemo": 5340, "othi": 7114, "star": 8573, "tar ": 8736, "lot": 5573, "gami": 3934, "nsta": 6444, "rix": 7888, "mor ": 5929, "ry-": 8195, "i-c": 4377, "iac": 4392, "hys": 4367, "ophy": 6951, "phys": 7347, "hysi": 4368, "endo": 3354, "ndos": 6144, "ncor": 6102, "eot": 3418, "iox": 4846, "xce": 9787, "xcel": 9788, "cel ": 2355, "ppr": 7437, "appr": 1743, "ache": 1336, "i) ": 4371, "stak": 8570, "-inf": 1176, " hon": 460, " ko": 546, "kon": 5190, " kon": 547, "kong": 5191, "ore.": 6996, "rtu": 8140, "virt": 9629, "irtu": 4918, "rtua": 8141, "erif": 3491, "ecos": 3100, "cosy": 2565, "lay ": 5278, "llet": 5490, "eer ": 3172, "-cu": 1141, "asy": 1901, "-us": 1251, "y-to": 9863, "-use": 1252, "yte": 9949, "tex ": 8837, "rud": 8152, " cru": 231, "crud": 2594, "rude": 8153, "pe.": 7283, "ope.": 6944, "pe. ": 7284, "brit": 2206, " tob": 966, "obac": 6605, "bacc": 2038, "lts": 5638, "ults": 9283, "lts,": 5639, "ik": 4606, "lik": 5432, "ike": 4607, " lik": 573, "like": 5433, "ike ": 4608, "ouc": 7131, " pou": 773, "ouch": 7132, "hes.": 4232, "epot": 3438, "pot ": 7417, "send": 8310, "cei": 2352, "ecei": 3081, "ceiv": 2353, "h.": 4141, "h. ": 4142, "q ": 7518, "-q": 1212, "-qu": 1213, " pos": 771, "post": 7415, "ost-": 7090, "-qua": 1214, "alin": 1562, "spri": 8515, "y-b": 9853, "y-ba": 9854, "macy": 5729, "eab": 3004, "lfu": 5391, "ulfu": 9264, "lfur": 5392, "oal ": 6589, " aus": 111, "rali": 7580, "alia": 1557, "lia.": 5401, "anh": 1674, "er-b": 3456, "-bus": 1126, "eers": 3175, "ford": 3861, "ord ": 6990, "tig": 8907, "tiga": 8908, "gt": 4114, "ngt": 6263, "gto": 4115, "ingt": 4754, "ngto": 6264, "gton": 4116, "clot": 2496, "loth": 5574, "thin": 8866, "'s,": 1089, "'s, ": 1090, "ldr": 5300, "chil": 2404, "hild": 4254, "ildr": 4622, "ldre": 5301, "dren": 2907, "ren'": 7745, "rels": 7738, "tv": 9103, "iew": 4552, "view": 9615, "iew ": 4553, "cour": 2569, "main": 5737, "tree": 9035, "sn": 8454, " sn": 894, "sno": 8457, "now": 6395, " sno": 896, "snow": 8458, "now ": 6396, "val ": 9538, "ania": 1676, "nc,": 6071, " zin": 1081, "zinc": 9985, "inc,": 4711, "nc, ": 6072, "eru": 3538, "peru": 7318, "sme": 8445, "elt": 3295, " bab": 120, "wil": 9734, " wil": 1060, "r-t": 7548, "tub": 9081, "warn": 9677, "rner": 7957, "rtr": 8132, "rtra": 8133, " ori": 720, "orig": 7009, "igin": 4590, "gina": 4026, "ner ": 6186, "win ": 9737, " mit": 633, "kst": 5201, "ckst": 2477, "ksto": 5202, "llat": 5484, " us ": 1009, "xp ": 9818, "ely ": 3297, "pay ": 7274, "loat": 5536, "casi": 2317, "sino": 8402, "yond": 9925, "sau": 8244, " sau": 851, "ips,": 4872, " ka": 534, "kan": 5128, "un ": 9316, " kan": 535, "ecru": 3104, "crui": 2595, " jo": 527, "job": 5103, "ob ": 6603, " job": 528, "job ": 5104, "eek": 3162, " see": 861, "seek": 8294, "-n": 1193, "hats": 4176, "ats ": 1948, "wee": 9701, "betw": 2104, "etwe": 3645, "twee": 9110, "ween": 9702, "omiz": 6824, "ramm": 7587, "sor ": 8479, "sui": 8630, " sui": 921, "suit": 8631, "uite": 9249, " edg": 309, "lett": 5369, "nns": 6360, "nsy": 6453, "syl": 8661, "ylv": 9909, "lva": 5680, "penn": 7302, "enns": 3376, "nnsy": 6361, "nsyl": 6454, "sylv": 8662, "ylva": 9910, "lvan": 5681, "vani": 9543, "aden": 1392, "nk.": 6325, "ank.": 1685, "nk. ": 6326, "ande": 1659, "ndel": 6126, "kage": 5126, "rees": 7715, " sid": 876, "sna": 8455, "nac": 6036, " sna": 895, "snac": 8456, "nack": 6037, "oes": 6680, "otat": 7103, "tato": 8745, "oes,": 6681, "mill": 5861, "easo": 3050, "ason": 1880, "lav": 5273, "flav": 3836, "lavo": 5274, "ispe": 4959, "cak": 2277, "chee": 2394, "cake": 2278, "hoe": 4290, "shoe": 8363, "hoes": 4291, "sand": 8237, "ndal": 6120, "en.": 3337, "en. ": 3338, "aine": 1504, "esh ": 3567, "egg": 3201, " rn": 827, " rna": 828, "pric": 7452, "chen": 2396, "enne": 3375, "musc": 5993, "uscu": 9435, "hy ": 4358, "get ": 3991, "car ": 2304, "uck ": 9172, "gur": 4127, "carg": 2308, "iles": 4629, " hat": 445, "rige": 7849, "iger": 4582, "gera": 3983, "rt,": 8100, "rt, ": 8101, "revi": 7784, "evie": 3670, "iews": 4554, "leb": 5322, "stac": 8567, "roz": 8045, "oze": 7226, "froz": 3885, "roze": 8046, "ozen": 7227, "pil": 7354, "load": 5534, "ader": 1393, "zers": 9977, "vato": 9554, "iese": 4546, "esel": 3563, "guid": 4123, "uide": 9233, "ded,": 2745, " phy": 757, "ysic": 9943, "sici": 8381, "cian": 2423, "ians": 4411, "nfi": 6223, "ava ": 1978, "terr": 8820, "erra": 3517, "sser": 8539, "sert": 8322, "ngs.": 6262, "hub": 4345, "rty,": 8145, "cb": 2329, " cb": 185, "-ed": 1153, "ing-": 4747, "ng-e": 6237, "-edg": 1154, "ndic": 6133, "repo": 7755, "epor": 3436, "orti": 7053, "i-f": 4378, "cker": 2465, " ol": 696, " old": 697, "eak": 3017, "brea": 2200, "lun": 5668, " lun": 598, "unch": 9320, "dish": 2846, "shes": 8356, "kes,": 5150, "ndw": 6155, "andw": 1663, "ndwi": 6156, "dwic": 2964, "wich": 9731, "iche": 4458, "chic": 2401, "hick": 4247, "cken": 2464, " ic": 473, " ice": 474, "ncs": 6105, "ancs": 1653, "ge.": 3961, "age.": 1447, "ge. ": 3962, "lved": 5684, "opo": 6959, "olym": 6800, "lyme": 5700, "ymer": 9915, "refi": 7717, " eli": 316, "imin": 4677, "se-": 8278, "cau": 2326, "ase-": 1860, "caus": 2327, "ins ": 4783, "hill": 4257, "blan": 2142, "lank": 5250, "eck ": 3093, "ims": 4687, "aims": 1497, "ims ": 4688, " one": 705, "more": 5930, "merg": 5821, "erge": 3484, "ger,": 3982, " reo": 813, "eorg": 3416, "ca-": 2267, "a-c": 1290, "coca": 2515, "oca-": 6622, "ca-c": 2268, "a-co": 1291, "-col": 1136, "cola": 2528, "ola ": 6756, "crow": 2592, "stl": 8593, "eco ": 3096, "um.": 9293, " ura": 1005, "rani": 7594, "um. ": 9294, "eact": 3007, "aps": 1745, "aps,": 1746, "ival": 5048, "ruis": 8158, "uise": 9245, " vac": 1017, "vaca": 9531, "acat": 1322, "ra-": 7554, "metr": 5835, "poli": 7401, "olit": 6777, "yz": 9958, "lyz": 5706, "yze": 9959, "alyz": 1604, "lyze": 5707, "ipi": 4861, "e'": 2974, "e's": 2975, "e's ": 2976, "pt ": 7483, "-int": 1177, "vely": 9573, "cd": 2340, "cod": 2517, "dex": 2796, " cod": 213, "elan": 3255, "nese": 6198, "cet": 2377, "acet": 1333, "nste": 6445, "stel": 8580, "n-f": 6013, "-fr": 1164, "-fre": 1165, "free": 3875, " win": 1061, "wind": 9738, "ind,": 4720, "siu": 8418, "mog": 5913, "ermo": 3504, "geni": 3975, "veni": 9579, "enie": 3370, "nien": 6287, "tuc": 9082, "jam": 5088, " jam": 520, "dard": 2703, "v,": 9524, " iv": 516, "v, ": 9525, "ra,": 7552, "ra, ": 7553, "o-t": 6576, "ara ": 1761, "rld ": 7914, "dle-": 2865, "le-m": 5313, "e-ma": 2990, "-mar": 1188, "uent": 9208, "laye": 5279, "ogn": 6704, "cogn": 2522, "nex ": 6214, "iscr": 4932, "qual": 7521, "regi": 7722, "uthe": 9477, "heas": 4196, "lad": 5234, "r-s": 7547, "-sp": 1229, "er-s": 3457, "mad": 5730, "race": 7558, "aun": 1964, "laun": 5272, "aund": 1965, "ndry": 6147, "shw": 8367, "wash": 9679, "ashi": 1868, "eter": 3618, "ush": 9445, "rush": 8168, "poo": 7406, "oos": 6935, "vita": 9636, "tami": 8727, "kit": 5178, " kit": 542, " hai": 440, "(i": 1098, "t)": 8672, " (i": 9, "it)": 4980, "t) ": 8673, " cho": 195, "oil,": 6726, "robi": 7973, "obin": 6611, "hart": 4170, "wy": 9778, "hew": 4237, "pet ": 7323, "eats": 3061, "dog": 2878, "cats": 2325, "idit": 4515, "dity": 2856, "gna ": 4057, "icar": 4446, "rms,": 7944, "ise,": 4935, "rks.": 7909, "- ": 1110, "ais": 1519, " ger": 415, "rais": 7576, " ru": 838, "roe": 7982, "tv ": 9104, "iot ": 4839, "itas": 4988, "tas ": 8740, "ids ": 4519, "o'": 6566, "sb": 8247, "ver-": 9585, "lga": 5394, "past": 7268, "ebr": 3071, " leg": 562, "lega": 5334, "egal": 3196, "stig": 8589, "w,": 9660, "w, ": 9661, "ifec": 4560, "fecy": 3756, "fs": 3888, "-cl": 1134, "ffs": 3788, "fs ": 3889, "ique": 4878, "; ": 1285, "-ro": 1218, "ubi": 9151, " tub": 981, "bing": 2120, "mpi": 5953, "mpin": 5954, "span": 8493, "orne": 7032, "ied,": 4531, "d-e": 2677, "ed-e": 3127, "d-en": 2678, "sa.": 8216, "usa.": 9432, "sa. ": 8217, "nd'": 6111, "und'": 9325, "nd's": 6112, "obj": 6612, "bje": 2137, " obj": 686, "obje": 6613, "bjec": 2138, " ter": 951, "ppre": 7438, "lume": 5666, "rmu": 7946, "ormu": 7030, "rmul": 7947, "nded": 6125, "lds,": 5304, "fill": 3808, "eets": 3181, "fed": 3757, " fed": 364, "fede": 3758, "eder": 3134, "dera": 2779, "eba": 3068, "ince": 4713, "ntiv": 6499, "love": 5579, "ntag": 6469, "lest": 5363, "tot": 9009, "oty": 7129, " run": 840, "clar": 2482, "lari": 5259, "ehe": 3221, "preh": 7446, "rehe": 7726, "ehen": 3222, "hens": 4220, "rkf": 7900, "kfl": 5163, "orkf": 7016, "rkfl": 7901, "kflo": 5164, "rox": 8042, "eani": 3031, "auce": 1958, "bag": 2040, "ags": 1467, " bag": 122, "bags": 2041, "oan ": 6593, " cm": 208, " ves": 1027, "vess": 9598, "ssel": 8536, "sels": 8304, "ulk": 9267, "bulk": 2233, "ntai": 6470, "ort,": 7046, "nke": 6327, " tan": 941, "tank": 8732, "anke": 1686, "nker": 6328, "fsh": 3890, "offs": 6691, "ffsh": 3789, "fsho": 3891, "dary": 2704, " fer": 366, "erro": 3520, "ammi": 1626, "mmin": 5893, "h-s": 4139, "gh-s": 4000, "h-sp": 4140, "-spe": 1230, "tog": 8974, "ipo": 4866, "xica": 9805, "tos": 9008, "urri": 9420, "rrit": 8069, "rito": 7880, "wl": 9747, "bow": 2189, "owl": 7194, " bow": 158, "aco": 1354, "sala": 8232, "alad": 1541, "lads": 5235, "umm": 9307, "ummi": 9308, "sel ": 8300, "rtre": 8134, "mpas": 5949, "esis": 3572, "gy-": 4132, "y-f": 9857, "ogy-": 6713, "as-": 1851, "s-b": 8211, "fron": 3884, "ront": 8010, "ont ": 6906, "ptim": 7486, "timi": 8915, "abli": 1308, "-ut": 1253, "-uti": 1254, "aid ": 1482, " tri": 977, "iage": 4394, " far": 361, "lw": 5687, "lwa": 5688, " rai": 797, "rail": 7574, "fert": 3770, "rtil": 8122, "izer": 5078, "oda": 6651, "moda": 5909, "odal": 6652, "lca": 5285, "nem": 6180, "nema": 6181, "ter.": 8810, " dra": 288, "drai": 2905, "inag": 4703, "pal,": 7249, "onw": 6913, "nwi": 6554, "ionw": 4829, "nwid": 6555, "sas": 8240, "wher": 9721, "xpo": 9826, "expo": 3702, "xpor": 9827, "oals": 6591, "essa": 3582, "nx": 6556, "ane ": 1665, "rofi": 7985, "nich": 6282, " opp": 711, "oppo": 6963, "ortu": 7056, "rtun": 8142, "tuni": 9092, "pts": 7492, " 3": 15, "3d": 1282, " 3d": 16, "3d ": 1283, " 3d ": 17, "m-s": 5713, "um-s": 9292, "m-si": 5714, "rea ": 7691, "woo": 9761, " woo": 1067, "wood": 9762, "uthw": 9478, "ure-": 9392, "re-c": 7687, "nsol": 6435, "ams,": 1634, "vend": 9578, "ndor": 6143, "dor ": 2894, "vist": 9634, "w.": 9663, "tra ": 9024, "occ": 6625, "upa": 9363, " occ": 689, "oyer": 7218, "tet": 8831, "tetr": 8832, "lip": 5447, "llip": 5497, "lips": 5448, "uef": 9201, "quef": 7525, "uefi": 9202, "efie": 3190, "men ": 5809, "enco": 3347, "-the": 1240, "orce": 6986, "ept ": 3442, " ef": 312, "eff": 3186, " eff": 313, "effe": 3187, "ffec": 3781, "sol ": 8467, "tco ": 8756, "kind": 5174, "eau": 3062, "beau": 2081, "eaut": 3063, "auty": 1973, " cot": 223, "osm": 7077, "cosm": 2563, "osme": 7078, "smet": 8448, "hyg": 4363, "ygi": 9897, " hyg": 471, "hygi": 4364, "ygie": 9898, "gien": 4019, "sun": 8638, " sun": 924, "sun ": 8639, "skin": 8429, "kin ": 5173, "depa": 2771, "kans": 5129, "nsas": 6410, "last": 5265, "pb": 7277, "oups": 7148, "ups,": 9373, "ang ": 1670, "fash": 3748, "shio": 8359, "hion": 4263, "lux": 5677, "uxu": 9514, "xur": 9842, " lux": 599, "luxu": 5678, "uxur": 9515, "xury": 9843, "watc": 9682, "ewea": 3681, "alv": 1599, "vag": 9535, "nsed": 6415, "taly": 8725, "lyst": 5703, "den ": 2762, "bou": 2187, "max": 5770, "ptu": 7493, "capt": 2302, "aptu": 1749, "ptur": 7494, "do ": 2875, " tot": 970, "tota": 9010, "otal": 7101, "urn ": 9408, "mmit": 5895, "mitt": 5878, "egy": 3215, "tegy": 8785, "egy ": 3216, "nsis": 6427, "tal.": 8719, "t'": 8669, "nt'": 6456, "t's": 8670, "nt's": 6457, "t's ": 8671, "xas ": 9784, "you": 9929, " gul": 437, "gulf": 4126, "ulf ": 9262, "oui": 7139, " lou": 589, "loui": 5577, "ouis": 7140, "isia": 4945, "sian": 8373, "harl": 4167, " riv": 826, "forc": 3860, "ix ": 5064, "orme": 7027, "rmed": 7937, "i-p": 4380, "ai-p": 1478, "i-po": 4381, "ago": 1461, "agon": 1462, "eas.": 3047, "itiv": 5013, "crin": 2584, "inet": 4736, "oil.": 6727, "croc": 2589, "sli": 8438, " sli": 889, "ots": 7123, "arp": 1823, "rpe": 8051, "shed": 8352, "hed ": 4202, "inj": 4764, "nje": 6321, " inj": 493, "inje": 4765, "njec": 6322, "ag ": 1440, " ag ": 48, "nop": 6380, "wd": 9689, "owd": 7189, "stop": 8601, "klo": 5184, "orkl": 7018, "rklo": 7905, "kloa": 5185, "ntit": 6498, "tity": 8942, " ze": 1079, "runn": 8163, "unni": 9343, "of-": 6684, "-of-": 1196, "effi": 3188, "icie": 4462, "osa": 7066, "ubr": 9154, "lubr": 5650, "ubri": 9155, "cisc": 2447, "osta": 7091, "on-b": 6850, " abo": 22, "abou": 1312, "bout": 2188, "unl": 9339, "inta": 4794, "ntas": 6474, "docu": 2877, "ocum": 6644, "cume": 2639, "cyte": 2666, "insi": 4785, "nsig": 6424, "sigh": 8388, "rame": 7586, "tend": 8801, "yto": 9952, "cyto": 2667, "neo": 6184, "eou": 3419, "utan": 9464, "(c": 1095, " (c": 6, "tom ": 8981, "aili": 1492, "ilin": 4636, "aeri": 1424, "ills": 4645, "oter": 7110, "ctin": 2615, "we ": 9691, "itti": 5029, "oder": 6659, "dern": 2782, "tev": 8833, "rop ": 8016, "-sto": 1233, "inen": 4733, "nues": 6524, " cv": 239, "vr": 9653, "kete": 5154, "-sc": 1220, "ws.": 9773, "ws. ": 9774, "escr": 3559, "uty,": 9506, "),": 1106, "), ": 1107, "ddit": 2723, "libe": 5407, "ynd": 9919, "ired": 4895, "ind ": 4719, "mex ": 5837, " soc": 898, " mes": 624, "mess": 5828, "ssag": 8534, "sagi": 8228, "text": 8839, "orec": 6997, "lege": 5335, "ttac": 9069, "tack": 8706, " eme": 318, "emer": 3314, "ambu": 1611, "kine": 5175, "ilu": 4656, "fail": 3740, "ailu": 1494, "ilur": 4657, "lure": 5671, "sar": 8239, "domi": 2889, "inio": 4761, "lan ": 5245, "ewar": 3678, "ward": 9675, "tici": 8894, "ipat": 4855, " dar": 247, "grea": 4094, " tal": 940, " ye": 1075, "rsea": 8082, "das": 2705, "dav": 2710, " day": 249, "yf": 9893, "tale": 8720, "alen": 1551, "oll ": 6779, "ntir": 6496, "cle,": 2486, "po ": 7397, "tiza": 8948, "dvic": 2956, "ocks": 6638, "ndb": 6123, "andb": 1658, "ags,": 1469, " son": 902, "cath": 2323, "upo": 9367, "adh": 1395, "dhe": 2804, " adh": 35, "adhe": 1396, "dhes": 2805, "nic,": 6280, " gar": 407, "rden": 7670, "inti": 4796, " tho": 956, "thos": 8873, "hose": 4312, "xten": 9835, "deck": 2741, "fi ": 3791, "sru": 8522, "upt": 9374, "disr": 2850, "isru": 4964, "srup": 8523, "rupt": 8166, "upti": 9375, "dou": 2896, " dou": 285, "glas": 4037, "ett ": 3639, "haw": 4183, "wai": 9669, "aii": 1486, " haw": 447, "awai": 1997, "waii": 9670, "tops": 8996, "rver": 8176, "eys": 3717, "acl": 1352, "acle": 1353, "dol": 2881, " dol": 282, "doll": 2882, "pap": 7257, " pap": 739, "pape": 7258, "aper": 1729, "ise.": 4936, "use,": 9438, "atho": 1930, "holo": 4296, "elln": 3280, "est,": 3590, " wes": 1053, "itl": 5015, "titl": 8940, "itle": 5016, "ah": 1471, "max ": 5771, "leu": 5370, "oleu": 6768, "leum": 5371, "eum ": 3652, "neri": 6190, "gaso": 3945, "asol": 1879, "jet ": 5099, "ntan": 6472, "arks": 1808, "tudi": 9085, "udio": 9197, "g)": 3917, "g) ": 3918, " fol": 386, "rsa": 8078, "ersa": 3524, " fan": 360, "bett": 2103, "ler.": 5353, " nam": 655, "name": 6053, "ame ": 1615, "ayo": 2016, "ngla": 6253, "ulu": 9285, "big ": 2112, "xer": 9798, "jac": 5086, " jac": 519, "jack": 5087, "oves": 7180, "kitc": 5179, "go ": 4074, "ram ": 7584, " ath": 104, "abas": 1299, "sin ": 8399, "00": 1280, "ecta": 3108, " mc": 614, "lak": 5240, "lake": 5241, "joi": 5107, " joi": 530, "join": 5108, " pv": 788, "pes,": 7321, "valv": 9540, "alve": 1600, "kr": 5193, " kr": 548, "eme ": 3312, "hpe": 4324, "ak ": 1524, "peak": 7286, "cea": 2348, "cean": 2349, "sts.": 8613, "eap": 3033, " pin": 761, "inea": 4730, "erri": 3519, "voc": 9642, "mo ": 5905, "ste ": 8577, "pum": 7502, "mps": 5968, " pum": 786, "pump": 7503, "umps": 9312, "mps,": 5969, "zl": 9987, "zzl": 9998, "zle": 9988, "zzle": 9999, "dow": 2898, " dow": 286, "xti": 9837, "exti": 3707, "xtil": 9838, " rub": 839, "aga": 1441, "elic": 3272, "ho ": 4288, "who ": 9727, "ngo": 6256, "droc": 2914, "vise": 9631, "miu": 5879, "emiu": 3318, "mium": 5880, "ed-s": 3128, " urb": 1006, " ita": 513, "leo": 5348, "rdo": 7675, "ardo": 1778, "lef": 5332, "nize": 6319, "pg": 7329, "pgr": 7330, "ngu": 6265, "lang": 5249, "angu": 1673, "ngua": 6266, "ulta": 9280, "ltan": 5616, "avit": 1989, "vacc": 9532, "ccin": 2336, "gai": 3929, "agai": 1442, "gain": 3930, "nst ": 6443, "gls": 4044, "ngls": 6255, "dyne": 2973, "lloc": 5504, "ad,": 1373, "oad,": 6584, "ad, ": 1374, "glu": 4045, "luc": 5651, " glu": 421, "gluc": 4046, "luco": 5652, "mpla": 5956, "ntab": 6467, " ju": 531, "jus": 5115, "just": 5116, "oton": 7121, "toni": 8990, "cio": 2440, "ndh": 6130, "held": 4210, "nche": 6088, "oso": 7079, "coas": 2512, "asts": 1897, "obl": 6614, "miza": 5884, "yli": 9908, "rx": 8190, "nits": 6310, "jer": 5096, "sey": 8337, " jer": 524, "jers": 5097, "rsey": 8085, "sey,": 8338, "im ": 4663, "ssm": 8549, "sess": 8327, "essm": 3585, "ssme": 8550, "smen": 8447, "rc ": 7635, "cy.": 2659, "ncy.": 6110, "cy. ": 2660, " 8": 19, "them": 8860, "hem ": 4214, "ldo": 5299, "rrou": 8071, "th.": 8850, "lth.": 5625, "th. ": 8851, "tise": 8933, "f.": 3731, " lip": 576, "der,": 2777, "lme": 5519, "leva": 5373, "its.": 5026, "rcy": 7660, "torc": 9002, "orcy": 6988, "rcyc": 7661, "novi": 6393, "urab": 9379, "phas": 7334, "zer ": 9976, "flas": 3835, "lash": 5263, "egri": 3212, "ano": 1694, "nod": 6367, "dad": 2693, " tim": 960, " evo": 344, "pet,": 7324, ".p": 1270, ".p.": 1271, ".p. ": 1272, "heme": 4216, " ess": 335, "ent-": 3391, "pala": 7250, "alac": 1540, " er": 333, "lage": 5237, "lm ": 5518, "sson": 8553, "lley": 5491, "ticu": 8897, "sper": 8499, "rion": 7865, "dens": 2764, "pire": 7362, " lp": 591, " lp ": 592, "ermi": 3503, "fint": 3816, "mong": 5924, "eato": 3060, "sew": 8335, "usew": 9444, "sewa": 8336, "ags ": 1468, "n-s": 6019, " in-": 486, "r) ": 7539, "i-i": 4379, "ery.": 3549, "seme": 8307, "i-b": 4375, "i-ba": 4376, "weap": 9694, "apon": 1737, "gnin": 4064, "vt": 9655, "edw": 3150, "rds ": 7678, "fesc": 3772, "esci": 3557, "ntie": 6491, "lix": 5463, "nt-s": 6462, "t-st": 8691, "noma": 6373, "vele": 9570, "t-o": 8686, "-ow": 1201, "nt-o": 6461, "-own": 1202, "cy,": 2657, "cy, ": 2658, "awn": 1999, "nlo": 6340, "iary": 4415, "ispo": 4961, "spos": 8511, "uste": 9457, "mian": 5844, "plu": 7389, " plu": 766, "plum": 7390, "weld": 9705, "insp": 4787, "nspe": 6439, "ibr": 4433, "etry": 3633, "indo": 4723, "bd": 2072, "lyb": 5697, "ybd": 9871, "bde": 2073, "moly": 5918, "olyb": 6799, "lybd": 5698, "ybde": 9872, "bden": 2074, "denu": 2766, "enum": 3403, "num,": 6531, "parc": 7262, "arce": 1770, "rcel": 7642, "n-t": 6021, "-tr": 1246, " les": 565, "ss-t": 8529, "n-tr": 6022, "uckl": 9173, "cklo": 2471, " wy": 1070, "fig": 3804, " fig": 370, "ager": 1451, " wr": 1069, "ncep": 6084, "igs": 4604, " top": 968, "fiv": 3828, " fiv": 376, "five": 3829, "uenc": 9207, " iq": 503, "doma": 2887, "omai": 6808, " mos": 641, "most": 5936, "fm": 3849, " her": 452, "arve": 1841, "swee": 8655, ".b": 1264, ".b.": 1265, ".b. ": 1266, "(f": 1096, " (f": 7, "em.": 3302, "tem.": 8796, "em. ": 3303, " 1": 14, " lam": 553, "ens,": 3383, "ko ": 5189, "mf": 5839, "rds.": 7680, "ro-": 7969, "cala": 2283, "lk ": 5469, "ulk ": 9268, "sibi": 8375, "tify": 8906, "bord": 2180, "ilm": 4646, "film": 3809, "una ": 9318, "ecio": 3090, "ciou": 2441, "-bo": 1123, "pf": 7328, "ilf": 4630, "lfi": 5389, "oilf": 6728, "ilfi": 4631, "lfie": 5390, "s),": 8206, "s), ": 8207, "ortr": 7054, "maco": 5728, " tv": 984, "-ban": 1121, "ues,": 9213, "utl": 9484, "outl": 7167, "utle": 9485, "tlet": 8956, " lib": 568, " om": 699, "tier": 8902, "pact": 7240, "ano ": 1695, "irms": 4910, "rms.": 7945, "rip ": 7870, "eeti": 3180, "ulfi": 9263, "egis": 3206, "paid": 7243, "rice": 7830, "ice.": 4452, " ge ": 411, "bo ": 2164, "grit": 4101, "agu": 1470, "vo ": 9641, "posa": 7412, "osal": 7067, "sal ": 8231, "haz": 4184, "aza": 2023, "zar": 9963, "haza": 4185, "azar": 2024, "zard": 9964, "rdou": 7676, "dous": 2897, "-ha": 1172, "t).": 8674, "t). ": 8675, "gru": 4106, " gru": 432, "rupo": 8165, "upo ": 9368, "alic": 1559, "lici": 5412, "seq": 8317, " seq": 867, "sequ": 8318, "eque": 3448, "quen": 7526, "os.": 7064, "os. ": 7065, "mind": 5865, "-sca": 1221, " ln": 581, "lng": 5528, " lng": 582, "lng ": 5529, "(l": 1099, " (l": 10, "(ln": 1100, "ng)": 6232, " (ln": 11, "(lng": 1101, "lng)": 5530, "ng) ": 6233, "fibr": 3794, "ibro": 4434, " ros": 835, "f-c": 3725, "stod": 8598, "bus ": 2238, "mir": 5870, "nig": 6292, "req": 7757, "requ": 7758, "lare": 5257, "let ": 5365, "down": 2899, "sts,": 8612, "omy": 6842, "nomy": 6377, " mou": 643, "moun": 5942, "unta": 9351, "bini": 2121, " gp": 426, "roy": 8043, "oya": 7214, "yal": 9868, " roy": 837, "roya": 8044, "oyal": 7215, "yalt": 9869, "ltie": 5629, "hs": 4333, " tir": 961, "ads ": 1409, "belt": 2091, "auth": 1971, "scor": 8266, "vacu": 9533, "acuu": 1368, " zo": 1082, "zoo": 9992, " zoo": 1083, "zoom": 9993, "blu": 2159, " blu": 150, "blue": 2160, "hae": 4146, " hal": 441, "uz": 9522, "ywa": 9955, "pan ": 7252, "link": 5442, "ink ": 4767, "-gr": 1170, " law": 559, "df": 2797, "uro ": 9411, "bond": 2174, " tro": 978, " hil": 455, "ony": 6914, "mony": 5927, "ony ": 6915, "inge": 4750, "sica": 8380, "nest": 6200, "lms": 5524, "flor": 3843, "rida": 7837, "nho": 6272, "-tra": 1247, "hope": 4305, "sai": 8229, "spot": 8512, "int-": 4793, "t-of": 8687, "wm": 9748, "rcem": 7643, "hype": 4366, "yper": 9932, "freq": 3877, "oped": 6945, "jui": 5112, "uic": 9229, " jui": 532, "juic": 5113, "uice": 9230, "bsy": 2225, "bsys": 2226, "mast": 5763, "ilms": 4647, "mist": 5873, "sys ": 8666, " sum": 923, "odat": 6653, "smed": 8446, "tap": 8734, "pp ": 7424, "tui": 9086, "intu": 4800, "ntui": 6515, "tuit": 9087, "viv": 9639, " ion": 500, "onis": 6886, "-so": 1228, "infi": 4740, "irid": 4903, "ridi": 7840, "n-st": 6020, "dur": 2945, " dur": 295, "vesc": 9597, "gia": 4013, "jan": 5089, " jan": 521, "janu": 5090, "atab": 1909, "joh": 5105, " joh": 529, "john": 5106, "arme": 1815, "wen": 9708, "-as": 1116, "-ass": 1117, "(\"": 1091, "\")": 1084, " (\"": 3, "vee": 9561, "will": 9735, "morg": 5931, " ky": 549, "rby": 7632, "rby ": 7633, "haul": 4178, "kra": 5194, "(r": 1102, " (r": 12, "(re": 1103, " (re": 13, "(rei": 1104, "eit)": 3243, "it).": 4981, "pen-": 7300, " kl": 543, " kla": 544, " nan": 656, "nano": 6057, "rna ": 7953, "rcar": 7637, "odd": 6654, "imbe": 4670, "sabl": 8220, " ken": 537, "ilr": 4649, "lro": 5597, "ilro": 4650, "omn": 6830, " omn": 700, "omni": 6831, "mnic": 5903, "icha": 4457, "f-ca": 3726, "ampa": 1630, "mpai": 5948, "paig": 7244, "aign": 1485, "lson": 5609, "ews ": 3684, "sq ": 8518, "blas": 2143, "upl": 9366, "bot ": 2183, "matt": 5769, " uns": 1001, "eddi": 3132, "lenn": 5345, "nar ": 6060, "tach": 8705, "vi ": 9602, "rris": 8068, "tles": 8955, " unl": 999, "etc": 3613, "imet": 4674, "wav": 9684, " wav": 1047, "wave": 9685, "rgo ": 7810, "mon ": 5920, "thl": 8869, "hle": 4279, "athl": 1929, "thle": 8870, "hlet": 4280, "luna": 5669, " roa": 830, "lx": 5689, "onde": 6867, "pate": 7270, "rker": 7898, "riot": 7867, "mara": 5756, "nets": 6205, " neo": 663, "taba": 8701, "mali": 5745, " mag": 604, "magn": 5734, "omet": 6820, "ipe ": 4857, "epu": 3444, "repu": 7756, "epub": 3445, "rex": 7788, "rex ": 7789, "j ": 5084, "rph": 8052, "nord": 6382, " nc": 659, "oust": 7159, "pw": 7513, " reu": 817, " rio": 824, "vill": 9620, "nn ": 6347, "novo": 6394, "aver": 1983, "disk": 2847, " ok": 695, " oli": 698, "sod": 8463, " sod": 899, "anet": 1668, "unst": 9348, "ivia": 5058, " pal": 737, "par ": 7260, " qui": 793, "pure": 7506, "niq": 6300, "uniq": 9336, "niqu": 6301, " phi": 755, "igo": 4602, "spro": 8516, "meni": 5812, "ocke": 6637, " pil": 760, "imo": 4682, " sky": 886, "illo": 4644, "kw": 5206, "ipr": 4869, " ics": 475, "tx": 9115, "ntim": 6493, "liam": 5403, "iams": 4406, "sir": 8406, " sir": 881, "sono": 8476, "imon": 4683, "idio": 4514, "rata": 7610, "oke ": 6743, "timo": 8916, "rsal": 8079, "twi": 9111, " twi": 986, " vic": 1030, " vee": 1022, "voy": 9652, " voy": 1039, " xe": 1072, " xp": 1073}